[PAD]
[UNK]
[CLS]
[SEP]
[MASK]
.
##을
##의
,
"
##에
'
##이
##는
##를
)
(
##은
##가
##로
##도
##한
##일
##에서
##과
##년
이
##ᆫ
##으로
##고
있다
##인
##와
수
##지
1
고
##했다
2
##해
##월
##다
3
##하는
##이다
##기
##하고
##ᆯ
##만
##할
##시
전
·
한
##사
##자
##대
등
4
5
##서
##수
##리
-
그
있는
%
가
##주
##어
##나
중
##스
했다
##게
6
##된
##부
##성
10
##원
김
##세
##진
##면
##상
것
##전
##동
##적
7
##화
##정
##에게
##ᆷ
정
제
##아
8
는
##차
##소
##한다
##조
것으로
유
##구
##까지
##ᆺ
##장
며
##비
대한
대
9
##라
시
##위
##명
##ᆻ다
##개
##우
##미
##치
말했다
##야
신
더
사
##회
##제
오
##선
후
안
미
서울
##드
두
주
##며
때
##ᆨ
의
##보
내
##호
한국
위해
##에는
조
박
이날
##산
이후
한다
##르
~
##들이
##형
##ᆼ
밝혔다
##하게
##트
에
##당
##여
원
통해
미국
##니
##분
지난
##재
함께
은
다
##마
##적인
##용
지
12
로
##하지
##하여
기
##하였다
##관
##신
##히
##하기
11
##하며
구
그는
아
장
비
해
서
일
##권
##하
##오
19
20
##요
##영
##타
##식
##경
소
##국
강
이라고
같은
##적으로
##모
세
대해
##무
상
부
일본
##승
##2
중국
나
뒤
를
##부터
보
이어
영화
##루
##중
모
##파
##석
##계
##문
도
##연
성
오후
및
##ᆸ
##유
또
##보다
##금
##현
##군
다른
말
라고
##되었다
##방
18
##종
##됐다
A
##안
것이다
##체
약
무
공
문
##노
가장
재
첫
##즈
##카
##점
이상
하지만
0
##들은
정부
30
##에서는
마
15
##실
##크
##ᆻ고
##단
양
이번
최
하
##법
총
##민
##ᆫ다
지난해
##억
동
경기
것이
##공
##물
##이었다
##면서
연
##m
##1
##내
파
모두
선
자
##들
불
할
##포
당시
##역
##된다
남
##양
때문에
바
##프
##건
우
열린
##태
피
반
차
##학
것은
과
최근
시즌
##ᆻ던
16
따라
잘
##교
분
##하면서
현재
##행
하는
데
##강
큰
##려
##급
##토
위
##천
##데
##였다
세계
경우
##이나
##터
등을
없다
##되는
##ᆯ리
그러나
올해
위한
##들의
배
많은
다시
거
##디
##준
##바
##코
있었다
초
다음
##에도
##생
##류
북한
당
따르면
와
##청
##돼
17
14
13
##배
것을
저
##했고
리
##되어
노
된다
인
##들을
발
##직
포
##두
##피
어
우리
##티
경
간
##운
##《
》
##병
경제
##감
##e
여
##ᆻ지만
의원
##러
명
25
##키
팀
배우
##해야
S
국내
##하면
B
##질
산
감독
##심
##브
진
게
##발
결과
##희
:
##작
특히
스
##패
##창
##될
##하다
단
##통
에서
##만원
개
또한
##환
지원
기록
##3
##거
지역
관련
##레
않았다
문제
##억원
?
대표
##번
M
##남
##판
새
삼성
카
매
하고
역
C
대한민국
됐다
##s
##던
##속
없는
##훈
##네
실
호
국가
영
모든
##층
##력
사용
##투
윤
##었다
군
자신의
##반
손
##근
하나
달
속
##했던
##a
##년에
K
아니라
심
##란
결정
2016
##집
##업
이에
##복
SK
임
방송
모습
##래
번
타
동안
##되고
만
시간
사람
그리고
입
외
##ᆯ러
사업
##격
##설
##철
LG
사건
##규
백
##더
##그
대통령
많이
##출
가운데
방
송
##이며
조사
21
##저
/
2015
##열
일부
관계자는
승리
##리그
화
같다
기업
##음
##후
24
23
기술
생각
애
개발
##년생
있어
##색
건
##ᆯ라
##씨는
##량
##처럼
시작
22
한편
사실
투자
물
코
회사
##스트
##령
볼
예
100
관
##초
27
점
선수
못
라는
등이
##위원회
현
본
될
회장
##버
여성
왕
줄
알
##예
추가
날
홍
##주의
트럼프
그의
아이
##온
##등
28
계속
P
##t
##왕
##라는
##o
26
적
전했다
시장
2018
보고
G
연구
판매
좋은
##임
정도
국
교
등의
채
2017
이를
새로운
##져
##워
##라고
직접
D
##절
앞서
##y
씨
각
##목
국제
##편
황
올
않고
이라며
종
국민
되었다
다양한
사진
이런
서비스
최대
진행
##박
##위를
북
29
롯데
##점을
추
활동
받았다
여러
허
##증
50
오전
감
##매
만나
##합
경찰
작품
최고
된
##각
##메
뜻
##했지만
##기를
##결
영국
않은
##시간
선발
##ᆻ는데
부산
##이라는
민
##림
##지는
##추
##ᆻ을
##테
##쿠
##i
##길
준비
치
받아
##명이
토
마음
##범
친
##이라고
##들에게
##료
##km
운영
예정이다
교수
##론
F
수사
정책
프랑스
L
제품
계획
삼
##팀
받고
##츠
주장
2014
##입
##처
##ᆻ으나
라
청와대
기준
천
##졌다
라며
##광
##락
역시
##평
교육
사회
있으며
##별
내용
##채
공개
##순
##약
만에
주요
감독은
결국
전체
##곡
또는
##표
##기도
##ᆯ레
##해서
기간
금
태
##든
검찰
##족
##퍼
온
개인
##에서도
##립
##외
##했다고
러시아
##언
##린
국회
메
40
정보
조선
##씨
해외
각각
열
청
발표
##4
##담
보인다
전국
패
##엔
변
##난
##년부터
##백
독일
장관
##망
##너
##G
들어
T
사이
##일부터
##자가
레
높은
##er
없이
않아
처음
##개월
제작
자리
두산
##와의
오는
성장
때문이다
있다는
##커
##윤
한화
생산
E
##랑
번째
공격
설명했다
2013
대통령은
게임
글
##그룹
기존
##장을
연기
행사
네
어떤
##곳
##탄
지난달
##장은
##품
음악
살
성공
받은
##6
##변
##성을
##봉
법
##살
##함
##이닝
##S
##본
##항
난
인천
##되지
##들과
N
도시
추진
편
##거나
##P
유럽
공동
31
의미
H
W
못했다
아시아
제공
관리
강화
면서
##B
있고
##대로
알려졌다
##명의
##케
않는다
베
확대
프로그램
##덕
##액
##ᆻ으며
##명을
있을
규모
##았다
##송
있다고
##자는
대부분
이용
유지
##독
##렸다
축구
드라마
차량
디
아닌
기록했다
지금
##하자
문화
I
현지
아들
으로
마지막
##경기
대회
투
##일까지
연속
참여
요
프로
##하던
##년간
정치
##M
_
적용
##개의
##ᆨ스
방송된
분석
##5
##례
##하기로
평
악
키
막
남자
##불
모델
후보
복
이미
##시장
##사를
집
않는
##녀
##쳐
##로부터
우승
2012
의해
대학
##숙
몸
##l
공식
##찬
##k
리그
##n
진출
있도록
##이자
용
너무
사고
출시
R
##F
크게
열렸다
만들어
통
##&
##I
달리
권
눈
아직
여자
##g
대통령이
V
돌
전쟁
사랑
과거
광
창
##사업
산업
책
촬영
##u
##총
대비
이하
곳
##빈
이유
그룹
걸
상태
미국의
아니다
##ᆯ로
무대
##스타
야
나가
##지만
브랜드
##al
직
발전
하루
테
##이고
없어
확인
기회
전문
계
상대
페
##O
수도
대표는
평가
생
전망
현대
관계
##냐
##A
기대
그런
##로서
요구
이라는
보내
##했으며
공연
##하기도
가족
대신
딸
설
만큼
해당
루
##ᅵ
##센터
수준
생활
##혜
언론
##암
함
출신
##습
인정
조직
데뷔
##L
길
formula
가지
##겠다
인사
]
평균
##거리
더욱
같이
이는
##술
KBO
쓰
출연
없었다
##겨
##[
J
##ᆻ습니다
도입
금융
필요
대상
되는
노력
자유
마련
예정
않다
중앙
승
##T
나서
##축
일반
최종
책임
갖고
선거
결혼
내가
변화
반면
극
돼
있던
자동차
바로
회
물론
피해
소속
##극
인상
선택
##율
귀
거래
##안타
표현
활약
고려
##베
구조
결
사장
##p
글로벌
##름
건설
오늘
찾아
이야기
독
가수
##번째
사람이
학
퍼
학교
2010
##ᆻ기
##취
##션
가격
MBC
##마다
먼저
집중
##균
혐의로
##책
##on
버
##익
자신
영상
2011
증가
있게
안전
형
정부가
##ᆷ을
급
등에
매우
##K
이동
구성
##지를
경쟁
투수
##업체
지방
##성이
!
출전
폭
##페
농
상황
시스템
나라
##r
앞으로
이름
##7
대구
##말
개선
##혁
광주
##or
##D
참
아파트
##울
어떻게
TV
##c
방문
논의
체
수출
올림픽
##상을
경기도
##입니다
##슈
먹
##손
경영
외국인
죽
해결
올라
문재인
노래
연결
선정
##년까지
있지만
발견
곡
참가
아버지
60
예상
##ᆽ
##애
##씩
##향
영향을
역할을
누
인구
이제
##하겠다
##왔다
##기업
포함
##ar
##북
업무
합의
되어
##쓰
보다
##분기
상대로
후반
하지
표
##C
##30
##일에
역사
시대
##하였고
##자를
위치한
판단
##능
조치
인해
들
가능성이
특
출
##E
설명
서로
미래
터
##막
항
현장
특별
판
=
KIA
##홍
##d
과정에서
부분
협력
##악
##∼
설치
운동
내년
훈련
O
’
밤
환경
총리
##20
발생
밀
##협회
##세기
처리
인기
NC
갈
향
##으
가진
반대
2008
드
##an
KBS
##산업
여행
환
‘
##골
설립
좋아
삼성전자
##머
협상
환자
커
개최
병
시작했다
두고
##자로
경기를
##R
상품
안정
2000
개봉
##욱
##ᇁ
##충
감독이
방안
핵심
##인데
완전
중인
2009
이러한
등으로
남성
이들
핵
것도
##옥
기자
거쳐
##장이
선수들
##였던
공급
기능
정상
절
##위에
수원
##N
만든
작업
##폭
##리는
##시켜
들어가
##력을
인터넷
스타
보였다
##하도록
일정
확보
대통령의
##기가
어느
경기에서
##헌
측은
##팅
분야
병원
작년
##10
##in
나왔다
##섭
##필
지지
달러
고객
앞두고
대응
##사가
증
대전
인도
모습이
시절
기념
남북
경기가
##누
중요한
목
##견
##50
##이라
##년에는
##님
합
몇
헤
##기에
공간
왜
##기관
계약
전반
앞
U
앨범
##촌
봉
올랐다
많다
##년대
오른
##ᆼ크
70
##풍
변호사
업체
##친
김정은
2007
존재
돈
골
대화
##으며
얘기
SBS
##탈
별
중이다
가지고
사망
##관리
내부
상승
팬들
제도
##U
2019
의혹
##볼
##칭
접
건물
감사
처
보도했다
##하거나
기관
##셔
##ᆯ린
쿠
분위기
##ic
##기로
방법
##ᆮ
계획이다
이전
동시에
##척
##끄
싶다
##re
나이
##쪽
넥센
홈
자기
인간
행정
대선
##ᆫ트
직원
따른
실시
차례
의사
신청
##으로부터
레이
나온다
서울시
##록
##효
다만
##X
은행
처음으로
##TV
방식
이란
인물
보면
이렇게
시도
비판
되
전략
외교
##슨
부담
입장
건강
##60
따
시각
혐의
##월부터
주로
조성
아래
이름을
##전에서
##문화
나타나
##한다고
이들은
필
##되면서
##벌
암
맛
##이지만
##한다는
사람은
관련해
##객
식
않
##H
##공사
팔
너
발언
좀
##째
측
이야기를
##했으나
##착
규제
대상으로
덧붙였다
우려
가치
##주는
부문
##지역
##ᇀ
목표
섬
주변
##흐
담당
매출
##병원
니
나와
##스는
##<
##택
이해
히
보호
##8
잔
도전
쇼
자료
위기
작은
제주
##시켰다
아내
문제가
##대를
새누리당
상황에서
##으로서
##달
때문
##ᆻ
격
##자의
강조했다
캐릭터
##h
중단
가능
조정
에서는
##스터
석
잡
##b
##흥
반응
##먼
팬
##경제
##기는
##했을
실제
시리즈
##라운드
신고
아니
있는데
써
수입
주식
잠
독립
보도
것이라고
부상
겸
오르
제대로
평화
하였다
스포츠
못한
득점
##협
그동안
중심으로
혁신
##관계
시행
##쳤다
자연
##찰
##은행
대해서
능력
있기
대해서는
##〈
##쇼
의료
##삼
##조사
##화를
준
휴
200
##수를
야구
캐
마무리
온라인
울산
자체
##측
통과
##지원
##원은
##80
관한
수비
자신이
여부
케
##수는
정도로
군사
최초
1000
작가
정말
취
전날
성적
목소리
##감을
나타났다
##하라
알고
않을
사상
올리
언급
##at
어머니
35
부동산
검사
##is
빼
힘
역대
##움
주장했다
관객
규정
단체
통합
전북
이탈리아
△
포인트
요청
##뜨
##학교
##수가
##연승
##시설
디자인
나는
논란
그가
##전을
##en
##ᆸ니다
2006
남편
##회의
##트로
지급
##회말
허용
##개를
사람들
베트남
##지고
##도록
##월에
##le
##V
기본
즉
구속
일이
불법
음
얼굴
##되며
거의
정신
활용
감소
인근
친구
##밀
떠나
배치
위험
##타점
거리
비해
대형
중심
질
80
##블
노동
뿐
##런
옥
뉴
##70
가능성
엄
위반
낙
##씨가
정상회담
##차전
원내대표
에너지
##하지만
인수
삶
KT
풍
법원
응
##ᆻ어요
##이었던
울
##딩
주택
필요한
높이
홈런
##링
s
##교육
내려
필요하다
##슬
뉴욕
##ᆷ이
비용
세상
금리
지적
##좌
연출
지정
멤버
확정
현실
수상
박근혜
장면
많아
각종
학생
##it
##ch
전달
##황
##원이
완
##연패
달라
스스로
연장
말을
##에선
듯
그린
꿈
그것
바꾸
머리
자금
뉴스
##ing
그런데
500
kt
##9
##문을
발매
##했는데
기억
우선
##는데
행
그대로
정권
대출
구단
제재
만들었다
일본의
고용
일자리
속도
민주당
지키
##우스
##진다
행동
##개발
##련
##새
##W
주도
미사일
대표팀
분양
바람
되고
발표했다
무역
복귀
##른
##치를
##걸
한다는
벌
샤
예산
하다
##궁
위치
제안
소개
이와
입장을
##ᆫ스
나누
##정책
끝에
전환
변경
32
범죄
나온
##회사
##조선
##0
존
탄
발사
빈
기사
전화
해야
##하였으며
##되
##대회
##별로
하락
참석
##렌
월드컵
여전히
시설
받을
비롯해
##나라
이유로
##람
##압
##둥
##하는데
왔다
올렸다
##us
교체
꽃
최고의
##선수
그리스
치료
돌아가
맞아
도로
그러
성과
수행
순간
투입
승부
회의
프로젝트
일어나
소재
부회장
##사는
##f
##위로
청년
스마트폰
통신
##명으로
##이어
살아
받는
검토
관심을
활동을
것에
##날
##회초
염
고민
티
중국의
선수들이
알려져
근무
한반도
##폐
##없이
##존
##40
##웅
##원을
풀
멤버들
재판
호텔
당국
##되었으며
소비자
효과
나섰다
##되면
폐
2005
##허
소송
효
##금융
구매
제기
지나
초기
실제로
이달
##글
방침
단계
##w
##십
임명
회복
##만명
##시즌
맞
과정
##ᆫ드
전기
제한
거부
엄마
##되었고
전력
##자리
부르
매력
33
000
특정
##위원
##90
최초로
행위
빛
##투자
넘어
나오
##대학교
민간
대체
카드
추천
북한이
##ᆯ까
완성
종합
##때
광고
##달러
수석
##있다
뛰
##학과
음식
사실상
##검
류
알리
실패
그래서
깨
슈
##19
힘을
##혀
충
장기
휘
##잡
말한다
##하려
직후
##있는
전자
가능하다
시기
숙
퇴
##v
개혁
##샤
이다
기준으로
##사회
졸업
##룡
선언
##들도
소리
불러
구축
##운동
제시
##파크
등장
##명은
FC
##탕
##갑
열리는
스페인
##선을
##자들
##률
조건
##생활
##방송
담
##본부
##침
부인
사이에
300
등록
육
프리
생각한다
봐
잘못
위원장
망
낮
##위원장
이번에
판결
##춘
못하고
철
크
차지
##개국
##접
걱정
##ᆼ이
##스의
형사
푸
괴
##하겠다는
발표한
보수
교통
##리를
눈길
##같이
34
작
그러면서
그들
웃음을
탈
오래
후보자
금지
야당
##정보
있었던
형태
##es
쉬
우리나라
45
##거래
##버스
##단체
하면
여름
부부
주인공
외에
김성
##득
만들
##니아
##줄
소설
바다
보는
도쿄
##지가
끝나
사례
##리에
##조원
##홈런
알아
내리
채용
##통신
타이
웃
범
비핵화
경남
##맨
2004
느끼
36
관심이
요리
향후
전혀
여기에
사람들이
것이라는
##큐
##트리
##올
##물을
시간이
##호는
##기구
##드리
노선
찾
##응
선물
##했다는
그림
덕
있어서
공유
어려운
도착
유엔
##억원을
제출
좋다
##니까
출발
술
##이기도
투표
##혹
실적
젊은
90
##업계
대중
공사
##클
##싱
##념
##폰
부진
축
설계
영업
관광
답
##대학
만난
약속
희망
##500
##헤
밝히
##ol
맞춰
위협
정당
##컵
##염
피해자
비롯한
강한
홍콩
있습니다
단지
지구
##비를
그렇게
예술
##군의
보이
돈을
파악
##스와
##뿐
##히려
주목
##제를
##시키는
포함한
##력이
영어
만드는
##식을
쓴
어렵다
##가지
##까
##ᇂ
넘는
로마
소유
더불어민주당
전문가
반영
##끼
시민
징역
##느
부족
선고
재정
##활동
차이
승점
원래
감정
공장
##이트
공개했다
누구
혐의를
쉽게
##쿼터
맡아
##스가
사과
넘
##차례
##학생
경험
대북
제가
형성
보통
땅
읽
법률
##코리아
해서
지분
유명
##연구소
원인
업계
우리가
이재
지시
##겠다는
##연구원
##건설
##귀
가정
맥
38
학생들
분류
충격
데이터
강조
케이
시험
전투
열고
가능한
이미지
##자들이
##되기
##12
##정부
주민
##톤
c
해도
한국의
사태
##게임
통화
##다가
걸쳐
##합니다
SNS
폭발
캐나다
##참
##혈
전통
질문에
모바일
통일
당선
기획
##욕
명의
적이
신규
크다
혼
##et
##성과
진행된
##랜드
초반
그리
우리는
매년
골프
지금까지
과학
장소
##센
어디
##x
사회적
##인지
후에
유통
##혼
지휘
제국
패배
##긴
소득
상황이
##기간
흥행
##전에
##주년
##사의
##주택
인식
따라서
곧
둘
눈물
슈퍼
##험
연방
##ᄈ
##들에
이벤트
운행
갈등
강남
위해서
가입
취임
종료
##ᆰ
##냈다
칼
##해진
화제
일대
기반
##승을
안에
##대가
합류
타고
하며
것과
우승을
##리가
##ᆫ다는
밝혀
##치는
본인
클럽
타격
##플
2002
일을
##25
##장에서
##촉
인생
생기
왼쪽
체제
##장으로
##ur
차지했다
했지만
향해
충분
지적했다
##서는
우주
홍보
돌파
떠
운
##원으로
##킹
김정
##득점
나머지
옮겨
자주
유리
##스크
매장
현대차
정의
밖에
##탁
##진은
취업
사실이
페이스북
##우는
비율
공개된
속에서
##루타
전시
특수
잃
##기술
블랙
##카드
때는
하여
만족
뭐
논란이
##실점
한번
앞에서
대책
신뢰
##15
녹
신경
##지도
##징
비밀
버스
동부
국립
##학자
인터뷰에서
혼자
방향
이때
좌
##라도
증거
##mm
놓고
##이드
단독
##자와
##공원
##됐고
##하겠다고
꼭
협의
달성
플레이
지하
공무원
싶어
##힌
압박
##프로
##시에
수요
새로
못해
거뒀다
해석
뛰어
KB
##려고
전문가들
역할
겨울
수술
메시지
높다
사진을
김종
임금
한다고
선두
대통령과
보고서
의지
##벽
외부
호주
##으면
##줘
##죄
김영
##농
면
철도
평창
##5000
싸
싱글
전년
##사로
##함을
동물
탐
수밖에
김씨
##el
붙
조금
##위는
##틴
받
바탕으로
어린
##월까지
올려
한국은
비슷한
확장
개막
##구를
##ᆩ
전해졌다
자랑
##육
37
엔진
홈페이지
말해
##드는
길이
##성은
놓
##가구
##대표
##소를
남아
##리스트
##하려는
까
2003
##레이
하이
##죠
##스티
##스러운
##ᆯ이
검
끝
##11
재판부
컴퓨터
파리
##지수
##데이
침
늘
떨어진
m
##ed
##턴
대기업
디지털
##인이
느낌
크기
##세가
기여
행복
접근
발생한
그래
자격
제조
김민
##ᆯ수록
##18
목적
##cm
스타일
들어서
##찌
무사
##안을
##해왔다
##th
보기
마이
본격적
##부는
상황을
##점으로
공공
##특
인터뷰
김태
외국
전에
평양
벗어나
개정
나선
##am
##법을
##엽
마찬가지
##재단
아이들
최소
통한
사드
전남
##大
카메라
##경찰서
작성
빠른
언어
##화가
소화
##지로
##17
잡아
정치적
공정
희
##닝
##ro
불안
전용
응원
어린이
##ᆻ나
##값
기타
현상
##자들은
##읍
중간
도널드
보여
혹은
냈다
##널
창업
포기
##스카
타자
방어
대사
긴
부모
예고
절대
테러
##나무
낮은
운전
역전
X
의견을
청구
##리아
노조
성공했다
##퇴
회담
##풀
코치
아침
알려진
##벨
##z
##시아
39
사업을
##장에
##사와
##21
##ᆻ는지
취소
패션
옷
종목
##낸
구간
브라질
이용해
몰
전주
##군은
##몰
수익
##ᆻ으면
##빙
마을
경찰에
기부
##st
대표가
##DB
##만큼
아니냐
체포
최다
##수사
지배
##콘
##ri
심리
##진이
사전
정리
엔
##써
of
##원의
55
대학교
##ᆻ어
중소기업
##되자
의무
실험
맞는
양국
있지
##원에
모아
##씨의
##받은
##루수
모양
##스를
##세트
무기
음반
##kg
##했습니다
다니
스테
여야
관측
##뉴
##로운
관련된
순위
##대의
기초
얻어
##닉
타선
##il
여기
워
속에
##놓
##트를
할인
헌법
폐지
시점
##라면
방식으로
##증권
b
아무
셈
결승
국민의당
낸
##16
대결
때까지
항공
1990
투어
##푸
IT
은퇴
주어
대규모
앞에
펼치
강력한
세력
비난
점수
꼬
애플
보니
지내
##릴
소비
봄
민족
##회를
##꺼
##24
잡았다
선임
##리스
중요
마치
씨가
##자인
##서비스
콘텐츠
밝힌
자세
담은
반발
##베르
주는
근거
소속사
##점이
체험
##짝
공을
불과
공부
빅
##현은
초대
##빠
##받아
오픈
52
48
되지
품
원칙
##얼
그때
포함해
##세대
이적
불구하고
##14
동원
솔로
##로써
진짜
싶은
법안
대법원
예능
##쉬
##영은
자유한국당
국회의원
이승
의원이
경고
시작한
##행위
나오는
##ra
지역에서
법정
들고
##전문
나타내
맡은
들었다
처벌
##씨를
##웠다
##체육관에서
불리는
스마트
볼넷
##상의
흐름
상장
체결
##했기
의심
드러내
국정
늘리
대만
AI
증시
주가
사무
인한
##학년
평소
49
기록한
늘어나
지속
체계
##지에
없다는
##묘
신한은행
##평가
지명
세종
연주
이끄는
자본
진술
##08
하면서
나무
42
찍
집단
##호선
tvN
자녀
불리
개편
열어
65
맞서
보험
관심
##으면서
호흡
##일에는
##자금
하는데
구글
##연구
발행
##캐
제외
##늘
늘었다
권력
보장
##호가
압
태양
경우가
취지
종교
##롱
절반
##이란
지상
머
찾아가
##케이
반도체
특검
재산
41
##ᆷ은
##시티
매각
작전
공항
쏘
매체
##팔
##FC
이정
던지
승리했다
콘서트
##레스
##따
않으면
안보
칸
마리
맡았다
보이고
안타
답했다
등판
자산
##해졌다
##납
수용
살인
자동
미국과
##더라
주말
##시킨
##럴
살해
앤
심사
지역에
출마
이익
한미
가까운
밑
2001
##맥
드러냈다
많았다
##트라
영입
##임을
찬
최선
형식
적극
소감
되면
##억달러
이유는
파견
##멘
했던
펼쳐
##심을
##듀
##칸
##un
궁
연합
##ad
다이
##홀
##일간
조작
##하나
어려움
아베
찌
받지
보유
남부
##답
겪
건축
의한
##13
세워
##갔다
완화
개념
##보험
신문
했고
##계획
열차
가슴
신인
##전자
##께
부정
##같은
맨
##하려고
질문
##비가
##ᆯ래
보이는
명예
##부가
계약을
44
추격
뒷
채널
뿐만
그려졌다
활
##베이
다소
내렸다
##ᆸ게
##휴
시선
근로자
총선
소통
제목
##장관
해군
오른쪽
사용자
관계를
##니스
##제도
수도권
43
사이트
##04
##주가
강제
베이징
##쟁
내용이
요소
부여
##받
하기
항상
##스테
이론
분리
없다고
혜택
당초
직원들
열심히
실력
전면
중에
월드
인증
##앤
없을
초청
##골을
##엄
##틀
올라가
##as
##부를
정식
본사
찾는
자치
관계자
재미
꾸
##23
##스코
직전
참석해
##만달러
연간
시작으로
회원
아주
현지시각
주문
프레
거두
##4000
##98
##핑
반드시
##웨이
벽
서울대
46
업
말이
##자들의
얼마나
사이에서
##07
올린
묘
당신
##표를
임시
관객들
상징
성격
도움이
the
스태
경계
최저임금
##봐
센터
지하철
금액
팀이
##스키
국방부
영업이익
##ir
출범
##900
이기
강원도
동생
뽑
헬
##28
빠져
부탁
##하다가
네이버
것처럼
뇌
맞추
예비
쪽
75
이곳
400
등과
##정을
쓸
p
증가했다
##35
##컬
##200
##27
등에서
다수
남은
후원
유사
일단
##연맹
포항
강원
FIFA
명칭
사는
옛
빠르게
띄
##ᆯ링
##지지
까지
명령
작용
떨어지
##지구
동맹
##도시
의견
탄생
짜
멕시코
별도
##89
밴드
저녁
없고
##칠
표시
무엇
마르
47
시장에서
시위
##서울
영역
##켜
받는다
경쟁력
지속적
연습
##시키고
냉
잠실
본다
활성화
요즘
59
##다고
##밖에
탑재
원정
##구가
대기
##하우스
##라이
선출
플랫폼
##듯
끝내
적시타
돌려
지사
한국당
##id
KCC
틀
사기
중요하다
##량이
##엔터테인먼트
하나로
CEO
##확
##겠다고
경북
높
폭행
웨
합병
대변인은
갖춘
영향
범행
##몬
알게
한국인
대한항공
##Y
##초등학교
없
특징
##개혁
기다리
##안전
56
창원
##바이
액
##루에서
##으려
##단은
획득
##버리
눈에
의회
대표적인
마케팅
가구
150
언
만약
군대
짓
진정
종류
##단을
생명
##ᆷ프
박사
아빠
##몽
긴급
지금은
IS
The
둔
드러나
메이
앱
듣
##시키
##스케
좋겠다
끼
##먹
##받았다
예측
기소
##성장
트위터
적극적
열었다
북쪽
##타수
##협정
과정을
부대
상반기
총장
얼마
##탈삼진
놀라
##군이
##대에
충돌
##만으로
54
##ul
##꾸
##면서도
감염
승인
라디오
이뤄지
죽음
##96
넓
진입
##진흥
##치고
유도
입주
맺
보여주
##26
n
##대상
북미
당했다
오랜
견
##과학
명단
##많은
지도
57
마친
혈
김동
사랑을
가져
교황
지도자
메르스
청소년
탄핵
쉽지
1998
런던
주거
재개
##었고
하자
가득
지켜
도움을
1980
색
걸어
연락
##관을
##스토
유니
회장이
홈런을
동영상
단어
계열사
사용하는
##쇠
##텐
CJ
않게
위에
##6000
정체
51
생각이
낳
내린
이민
이사
##올림픽
보안
상당
##55
쌓
빨리
##더니
배경
자리에서
교회
기록하며
동의
보냈다
아동
사무실
d
기원전
인력
##09
물러나
##쯤
소련
북부
##펜
움직임
##보고
세금
풀어
##축구
표정
아프리카
제외한
마쳤다
끌어
##본부장
관광객
점검
기자회견
##환경
걷
##협력
프라
##경기에서
##짜리
못하는
선보였다
빌
응답
인권
주최
##발전
경기에
죄
임대
타이어뱅크
의식
움직이
실수
부과
가는
이사장
주자
주석
황제
자아냈다
지역의
미소
컨
하나의
손을
명이
고위
콜
높아지
##들어
시상식
특별한
뒤에
##97
숨
##현이
일상
FA
꼽
떨어져
##57
삼진
원하는
주민들
네덜란드
##희는
갑
점에서
상무
신호
기분
##민은
꾸준히
##시킬
##장과
클래식
##영화
##ter
벌어진
##金
공격을
##밥
##한테
즐기
##체를
화면
싱가포르
논
##회에
##정은
평가를
블루
##월에는
옆
썼다
##선의
##해온
육군
고양
플레이오프
##빛
펼쳤다
##섬
웃음
미국에서
빠지
##기록
##8000
문자
지어
출판
##법인
유명한
##비서관
끝난
여의도
밥
Y
인사를
##피안타
1999
##이던
##ᆻ냐
##김
##어로
의장
##BC
극장
##넣
다리
f
마크
미디어
좋지
53
기대감
지진
##기와
판사
역임
임원
##ation
여당
##한다면
끌었다
동기
벌어
##물이
버전
##럽
내야
##os
##함으로써
##장의
##ow
쌍
택시
동료
##차전에서
것이라
매주
##위가
##솔
익
바라
채택
이내
액션
공감
라이
굳
##37
EU
신분
어려워
##프리
비상
그녀는
##사에
바이오
본선
같아
##여명
##ᆻ다고
하반기
이혼
문학
개의
##르는
축하
이틀
인도네시아
방영
여기서
위해서는
잉글랜드
애니메이션
Q
##화된
##구장에서
손흥민
탈출
##컨
##山
무료
##29
카페
##하다는
받아들이
가까이
분노
더불어
외교부
저는
추정
정치인
현지시간
교사
맹
바란다
##탑
##비아
##시대
MC
만루
##ay
##튼
향한
##계약
오리온
신설
##신문
표준
넘게
미리
엘
##룸
##적이고
상하이
설정
키우
발휘
##휘
척
투구
소방
화학
연구원
육성
늦
##젠
남녀
맡
백악관
일제
흥
미국이
차별
##텍
훨씬
##칙
잠시
58
듣고
비중
##소리
미군
스웨덴
사퇴
예상된다
매일
임기
선사
커피
진단
기업의
특성
말라
5000
재무
장비
귀국
분석했다
##ᆯ프
가동
빠
고등학교
00
개입
프로농구
입고
##보증
갑자기
하늘
##ᅥ
부품
하겠다
##39
2020
편성
거주
빠진
##사인
모여
향상
##벼
서부
했는데
권리
커지
몰아
출연해
##모토
철학
##스포츠
64
##튜
##타운
##단이
리드
##번호
##콜
##단지
도중
선수가
노출
##소득
처분
보낸
##티브
영국의
##ᅱ
뜨거운
##ia
같
결합
로봇
관세
믿
세대
넘기
베어스
##36
##38
##옹
##전쟁
집회
##단계
##세의
챔피언
1997
필리핀
마치고
상황에
집행
밟
소녀
세우
시작된
##픽
통산
출석
##국가
바뀌
##석은
##더라도
정규
##빌
##민이
63
##실장
김재
담긴
##했었다
##성의
3000
##22
##사건
판정
##드로
그녀
근처
도발
만남
들어오
##ot
호투
걸그룹
절차
달려
##킨
새롭
화재
##페이
##맞
태국
사법
쥐
##文
떨
복지
##ᆻ었다
불편
##뢰
##오는
##「
봤다
##단의
있었지만
이어졌다
굴
##국제
제공한다
소프트웨어
기업이
결정했다
수치
##해져
기계
김상
콘
아이돌
묻
##행사
유로
다루
NH
호소
##른바
##시스템
##um
택
상황이다
주연
숫자
##ᆻ죠
##브리
##보는
태어나
구입
선박
인스타그램
##검사
터키
##31
가량
바라보
##선이
입단
61
요인
정확한
##배우
##점에서
태도
##혔다
정기
##ᆷ과
깊은
우려가
##34
마시
##대는
뛰어난
##이기
긴장
##감이
##보이
홀
창출
##받는
##포인트
다르다
중구
라인
의도
##당한
국회에서
덕분에
##라인
##7000
##조차
여론
##동에
이주
프리미엄
사용할
최저
나오고
##뿐만
총재
식당
접수
않도록
동쪽
변신
##33
쓰는
지점
국민의
운영하는
##ᆻ으니
##에만
징계
넘겨
##쥐
이성
값
인하
에이
##300
이것은
워싱턴
##부문
일반적으로
계산
말씀
##들로
##프라
##줬다
범위
처음이다
##되기도
##관은
다녀
##李
##개로
수정
##라스
이종
##뚜
St
물질
끊
늘어난
중에서
KGC
주고
자신감
유일한
서쪽
이들이
##관이
가졌다
구분
형제
84
힘든
적은
운용
##회에서
62
##구역
넣어
산하
스토리
강남구
##ut
##릉
뮤지컬
식품
##32
인민
##밍
구체적인
조기
능
진행됐다
쳐
세월호
잡고
현금
걸리
플라
공화국
만화
##보니
깜짝
화려한
##예술
집에
앞선
검증
현장에서
##볼넷
제거
승강장
##J
공모
받게
헌
##하다고
##과정
##석이
다섯
##다운
목적으로
##48
##자동차
기독교
극복
활발
성인
##뿌
출연했다
무대에
나올
##놓고
##42
주제
구성된
희생
##꼬
직업
##op
##억원으로
##600
데이
대리
덜
코스
이름으로
코리아
예선
드리
피부
벗
지켜보
##타워
혁명
##해달라
##컷
##53
동아일보
곳이
##ᆻ느냐
예방
##뮤
뜨
##교회
지식
##흡
무리
고백
싸움
이래
스크린
타율
##려면
내고
허가
##하시
중국이
개정안
불펜
굉장ᄒ
##부에
##ᆯ리아
##ᆯ루
##없는
후보는
##43
1970
건너
곽
일으키
##뷰
##자에게
되기
원을
##패로
땅볼
가리
비행
바이
파괴
위원장은
축제
얻었다
경력
끝까지
생각해
##선은
선수단
동일
공포
맞이
살리
고통
##신도시
전원
점점
북한은
이루어
##GM
에어
빚
국정원
결론
개통
차관
미세먼지
##항공
##문제
출장
당연
분야에서
베이
GS
##식이
전개
내에서
주의
##군에
예를
문서
뿌리
##국의
낮아
우리은행
폐쇄
1996
이슬람
목표로
##야구
나눠
국내에서
상처
양성
복수
있으면
계기로
##상품
속하는
##ig
주제로
갔다
##사관
본격
##100
시리아
최씨
이름이
앞둔
##무역
##기획
상업
통제
##구조
고급
조지
해주
중동
네트워크
##경은
1995
착
앞세워
제작진
##아이
##대책
형태로
##씨에게
먹는
##學
곳에
##화학
##뇌
몰려
자라
매출액
보이지
##제로
캠프
1994
폴
##시마
전까지
있
##선거
포즈
감동
취하고
앙
##봤다
신임
##우가
생존
현재까지
##므
##세요
유치
배출
라이브
에이스
부장판사
높아
##철도
확산
비교
댓글
##국이
##감독
입증
반복
##분쯤
장르
차이가
마약
공약
위로
청주
##느냐
뒤를
측면
욕
자살
##첩
부사장
파트너
김진
여러분
식사
이끌었다
사람들은
##51
##덴
66
##프트
떼
편집
우수
##피스
후속
시장에
기업들
않기
들어갔다
이전에
강력
포스코
때부터
거듭
원장
복합
68
##려는
단일
증명
있었고
##2000
관계자들
##야마
고발
알려지
##중앙
##ne
길을
##토리
##였고
##트는
##죽
##짜
##팩
한국시간
##ᆾ
칭찬
측정
분명
모집
##se
않겠다
전기차
출입
In
##공장
노동자
##BS
진행한다
혼란
자사
맡고
뮤직
##즘
##州
히트
위원
상위
번역
검색
떨어졌다
Ch
대표이사
##공항
이사회
판매량
제공하는
해소
1988
##스턴
##됐지만
장치
##상으로
##ac
시청자들
무려
곧바로
72
민주
w
##라이트
##도서관
법무부
업종
접촉
협
이행
모르
연극
##롭게
짐
자리에
전역
마음이
부분이
##od
확인할
열린다
파워
위하여
##j
이듬해
무슨
##르트
중국은
##습니다
법적
##호로
누가
##쉽
감독과
##대학원
##상은
##ent
참석한
따로
##ᆯ리스
프로그램을
##체육
선전
소식을
지적이
대회에서
##알
주력
현행
편의
##밤
인재
##간의
현재의
시인
혜
이어진
##럼
친구들
쓰고
##클럽
답변
만들고
만한
벌금
##꾼
늘어
자극
뇌물
##텔레콤
##졌고
새벽
누적
언제
만들기
##금리
수십
##받고
t
실행
트레
축소
김경
##매치
장식
##리바운드
저지
결과가
##룩
나중에
제일
소환
##ie
##이어서
연설
##능력
법인
##비는
것이었다
##400
교류
김용
안타를
옮기
##조정
불만
##정이
고소
점이
였다
징
기울
참석했다
##지법
의원들
석유
##버린
어깨
대륙
##시험
##학원
##겼다
##and
휴식
##타를
1992
배우이다
##빵
정치권
##AR
폭력
방지
박정
결제
공기
성폭행
오사카
수립
##실에서
##달라고
과제
튀
##달라
##치가
##실을
입학
생방송
힘들어
안내
통상
배터리
한국에서
##마저
##앙
소장
인공지능
적자
장점
##ST
##95
##보호
Co
바꿔
h
요금
김기
진실
합격
##포럼
하게
##싸
##넷
##순위
발달
에게
충남
상임
유출
간의
##순환
생긴
노사
결의
##벤처
나아가
성능
자이언츠
##터미널
스위스
오브
##ᆨ시
노리
신라
##9000
중반
##콤
##영이
뒤집
##수의
태어났다
##디스
러
줄었다
##72
찾은
이것
관련한
연말
사건이
수준으로
원전
짧은
유력
흘러
선호
##아시아
##이라도
제주도
##쑤
탈락
##ᆫ다고
안양
##투어
##봐야
교육부
손실
돌아오
미니
조합
노인
##테크
직무
##덤
줄어들
보상
##훈련
인정받
카카오
##45
주주
스키
전파
브리
승리로
펼치고
개봉한
영향력
화성
##제가
지낸
전부터
발굴
##52
##위안
경기장
##가량
완료
거절
##해도
실무
국가대표
##co
상호
드러났다
최고위원
##65
채권
##관광
만났다
그냥
지냈다
연봉
##문학
팀은
##인들이
아웃
상승세
자원
사항
집을
세운
##필드
##가격
예전
찬성
입은
이영
내주
앉아
##종의
받아들여
설득
적어
##준은
##흔
키워
체력
흑
해체
세웠다
한계
용인
##하라고
타이틀
전자랜드
말고
##사단
아프
동반
##렴
건네
힘입어
실현
찬스
##식품
##키스
조언
예약
##셀
손님
만들어진
국경
##91
넘어가
국방
클라
신체
권한
해명
비판했다
성명
균형
전세
선배
##→
전공
##웰
살고
주지
##권이
추구
##기금
힘이
펀드
##돼야
김현
정비
67
집권
정지
당장
한국과
##리오
컴백
선수로
해상
누리
##진영
##실점으로
받으며
스포츠동아
주행
평균자책점
신화
이라
점령
##아웃
최대한
통보
흔들
##해주는
##율이
아쉬움
##퀴
##범죄
진화
##굴
이슈
장착
포수
트윈스
소형
74
사유
심판
경찰이
##분의
단위
##셨다
120
##國
##부장
##빌딩
의결
주관
##99
점차
특허
효과가
기대를
85
히어로즈
자체가
스피
##털
부처
기반으로
무엇보다
방향으로
방문해
성남
폴란드
##하니
참여한
1991
##경영
만들어내
행정부
문제로
PC
차트
타구
##ᆫ다면
몰라
할머니
확
음원
생각했다
마감
##짓
상영
황금
환율
##호의
미국은
##이었지만
##공학
구조조정
##텔
오바마
돌아온
##프레
아니었다
차원에서
오늘날
검찰에
##전이
##시부터
아름다운
아르
##지사
중국에서
웹
차단
일본에서
서울특별시
확인됐다
##동안
##비치
시민들
분쟁
l
홈경기
실시간
얻은
챙기
있는지
고정
1993
##포트
제임스
복잡
모습으로
빠졌다
스타트업
칭
항공기
맞은
똑같
슈팅
무게
인프라
##주기
가격이
진심
수록
남쪽
개방
##둬
합니다
부당
##공간
제약
국민연금
잡은
##힐
##제품
##러스
준다
##te
보건
결승전
##학적
보유한
힘들
흔들리
통치
제정
##법에
따르
연기를
역량
##세는
반전
리더
##위원회는
##기준
##공단
발생했다
로드
투자자들
대거
기쁨
성향
춤
마주
모임
받기
악화
##랭
##安
##맛
좋아하는
연애
상대적으로
담겨
기소된
연계
##끼리
유격수
증가한
임직원
소년
##트레
##고등학교
국민들
##05
##량은
말에
##명과
##여행
##84
경주
##CC
방탄소년단
자신들
한정
원작
아우
여유
이루어져
저자
69
검찰이
이수
약간
싸우
한국에
갤럭시
평가했다
##하나은행
조심
이중
개별
##SA
출국
##전략
##im
km
물어
스튜디오
수학
경제적
1987
통해서
즐길
저장
거치
##노동
그쳤다
##54
##대표팀
상상
상담
##국장
##대출
해안
아이디어
부총리
포함된
##연합
##PS
##투표
면적은
##회장
이글스
##팀이
강경
트래
##연금
안에서
매매
장애
##료를
##700
주재
##Q
각자
브라
적발
이용한
공립
톱
인지
중국과
흐르
보여주는
박수
##BA
쏟아
##ab
##것
청약
섞
몰리
덮
무시
활용해
딱
캘리포니아
천안
들여
곳에서
고향
꺼내
널리
현역
##ᆶ
##율은
입장에서
테스트
진료
이라면서
처음에
잡지
치르
위기에
##지방
물건
목록
시신
많
인연
구속영장
캠페인
코스닥
찾았다
##사령관
암살
작곡
되었고
##88
##시스
꺾
##東
비디오
수단
한때
승진
수주
감성
##76
##망을
내내
##연은
있어야
멀티
재직
##종합
시작해
지수
왕국
##三
##75
숲
자전거
##단에
승객
경험을
임신
담배
심각한
더블
나도
불가능
이끌어
있으나
메이저리그
##마리
이었다
국가대표팀
아메리카
조약
무장
조각
##톱
노무현
소식
코미디
##농협
먹고
상당히
이용할
자회사
취득
넘어서
사안
정부와
화장품
독일의
##이면
씨의
원유
맥주
헤어
실질적
관여
##였지만
##녕
밀려
참고
이뤄진
##틱
실점
in
지정되었다
남아있
시내
경선
남겼다
##OS
경우에는
파일
맞았다
집에서
콩
주전
##베리
##마켓
놓치
##세포
시대에
선보이고
대학생
인터
진행했다
73
마운드
비즈니스
회계
차기
측이
01
##체계
내려가
국내외
##ᆸ다
편지
휴대전화
##생명
지지율
##타임
골을
대폭
##램
이상이
세포
연예인
감각
물량
이어갔다
600
모았다
사용한
공천
알레
운명
감시
총괄
대하여
대표하는
##업자
세계에서
결성
##자료
미술
Re
##ᅳ
남겨
##주고
던져
##호텔
탈퇴
달하는
사로잡
수영
##3000
공화당
아마
짧
그만큼
정유
문제에
##자산
정착
힐
공략
사정
1960
김모
##렬
수업
그녀의
토지
그래도
##협상
##떠
군인
##회의에서
집안
둘째
##IC
원주
크리스
고대
공군
열정
나갈
이르는
##계의
지목
행사에
PD
못한다
말이다
미만
지었다
고려해
걸려
##현의
영토
##디아
각국
##낭
용어
높이는
##음악
타이거즈
후보로
동점
관중
##됐다고
마지막으로
번호
추세
도심
보아
일어난
크리
모비스
물었다
태평양
타임
03
전후
공조
말한
했다고
바르
텔레비전
##수석
코드
배우들
##시오
오스트리아
한강
##장치
털
항의
##맹
탁
장애인
##월드컵경기장
재단
##또
##44
멋진
##이라면
##특별
입법
전설
이스라엘
특유의
##상태
##벤
보급
76
연인
가스
77
##아가
실내
결혼식
강하게
후보가
연대
사라지
##la
##투수
##딘
앞으로도
농구
##플라
떠오르
##함에
사직
가상
말레이시아
##서울중앙지검
##저축은행
넘치는
가게
##껏
##해진다
##플레이
##했
##66
착수
윌리엄
##자마자
신속
##교수
의문
##희가
당일
1989
##ᄍ
##협의회
##처리
##부르크
개발한
공개됐다
##학회
금융위
부지
##OC
식물
러브
돌입
독자
있었는데
바닥
소비자들
##tr
나를
폭로
내에
운전자
싶었다
##NG
비리
전부
결심
##시킨다
감소했다
변호인
목숨
공개한
순수
##함이
거둔
품질
못할
나란히
브리핑
##장애
##폴
메인
강릉
돌아왔다
듯한
이외에
느껴
대립
요구했다
##국민
##49
틈
내각
끌고
상태에서
초등학교
##더스
줬다
토론
가서
교환
##펀드
브루
녹음
제조업
괜찮
높였다
##교통
가문
비행기
##쾌
##법상
95
논문
##공업
세트
SM
차지한
##십자
공시
진보
역사를
지닌
핵실험
##뱅크
중학교
부장
##94
행진
무죄
트리
##ᆭ
##카와
구역
태풍
벤
코너
경우도
통계
쇼핑
진행된다
지나치
필수
재활
간부
기아차
##지며
##ell
농업
자국
찾기
그간
시장이
DB
고문
멀
장군
##소송
묵
##리조트
비롯
##첨
##이었고
막기
특징이다
의미한다
차원
허위
평생
##PO
북핵
직장
전직
중국인
##논
시사
71
##ion
피의자
##하고자
88
붕괴
아일랜드
먹어
원자
조세
란
않았지만
##씨와
당황
유튜브
무릎
출연한
##홀에서
표기
계열
최순실
북한에
##86
노동당
펜
최강
##47
내용은
구상
학습
##트럭
연휴
시기에
##당국
##王
추락
##교육청
02
클리
##시키기
골든
매입
##축구연맹
포착
막아
하락했다
역사적
##브라
증인
지연
있을까
##꽃
##em
##ᆻ지
완벽한
조절
##子
##킷
가능성도
안겼다
그렇지
않았고
탑승
성분
##머스
베테랑
컸다
##ap
브레
##만이
주인
마감했다
##비용
가리킨다
##平
##셰
치른
낮추
##경찰
호남
##하더라도
##쿼
증권
골키퍼
패스
방송에서
##샷
웃었다
##팽
비교적
창조
첨단
어제
메이저
빗
##85
날씨
##머리
착용
##었으나
엄청난
김준
협박
그렇다
유래
대장
공작
나누고
팬들에게
일종
소식통
있다면
##56
AP
공격수
나설
입을
샘
##복지
위성
레드
##푼
동아
해당하는
##드라
##그리
부른다
여자친구
아울러
칠
##부대
다룬
##sh
부근
덴마크
흥미
인기가
내일
##지검
에스
목격
점유율
금감원
##센터에서
배제
LA
##경기에
구현
각오
개헌
##미터
아카데미
공공기관
묘사
둘러싼
##고속도로
의존
##연대
안팎
깊이
싶
이웃
##제국
행보
##67
##너스
지역을
베스트
이른다
록
커플
##호텔에서
음성
야마
부활
부천
##MA
상승했다
맞고
방해
무실점
##액은
출루
180
지도부
##TO
##후보
병사
대외
박성
##68
매달
밀어
태어난
##꼴
댄스
줄여
전세계
온도
##46
##스파
BMW
모르는
수요가
부채
삼성생명
건조
출산
##77
불교
친환경
수집
##여개
낼
윈
되면서
치고
##스쿨
KEB
붉은
심장
유전자
말하며
관찰
요시
돋
게이
##사무소
경향
##ry
재벌
##되게
수백
가족들
저희
경험이
존재한다
역사상
일시
유니폼
솔
제외하고
##사진
##78
##물질
봉사
##oc
붙여
촉구
프로야구
무너지
테마
비싸
##82
일주일
그려
살펴보
소수
##64
대답
1986
최악
추억
##대사
##사항
환영
##로서의
##71
지표
유발
베르
규모가
조사됐다
철수
가면
난민
##AS
절차를
데다
##ine
간담회
조용
없으며
##NA
화물
이야기가
Z
말하는
슈틸리케
빼앗
e
##보좌관
##SS
차지하는
공통
보관
몇몇
##人
예능프로그램
99
등급
거론
78
밝
##DI
없애
##웨
보유하고
영화제
##심사
수수료
고교
협조
##SC
말았다
선고했다
부상으로
영장
쌓아
시나리오
##ᆸ스
급증
것인지
가톨릭
나선다
단기
##시장에서
##교사
헤이
자율
##놔
##률이
판단했다
띠
출생
오해
참여했다
##ive
##조직
포지션
좋으
장악
##스틴
##머니
열애
##정치
##서울중앙지법
##뉴스
외환
애정
1984
크레
##보기
주기
입국
SUV
동해
현대자동차
팝
##행정
이뤄
종전
##총회
대량
특집
안철수
보완
##중학교
저항
떠난
##ᅯ
와이번스
##lo
연령
##ph
펴
##플리
치료를
마운드에
##ha
세계적인
##블록
허리
유기
서식
##69
당한
간단
##밭
##체제
플래
US
압력
##all
지원하는
적지
그에게
##art
상태로
머물
공정위
직구
캡처
##등급
시티
81
##63
1985
번째로
증언
있을지
##박스
할리우드
##ge
##ᆯ렉
##피아
##준호
언니
맞대결
##스럽다
광장
해양
##떡
인공
소개했다
##ag
79
그러자
AFC
만날
##ᆻ음을
서류
오피스텔
실책
##받을
구체적으로
##동계올림픽
보여준다
상주
챔피언십
분위기가
얼
가르치
##바라
꺾고
들어간
잇는
증상
##했는지
마라
늘려
납
인류
열려
Al
겨냥
미션
성공한
보복
800
수준이다
##캠퍼스
커뮤니티
여론조사
기조
누구나
##팬
사용한다
강도
##58
알렸다
##ᆻ음에
협약
##결과
회동
##ess
강연
투자자
82
연관
묻는
자문
어렵
없었던
방위
철강
셀
국무총리
재료
파울
다카
총리가
##ᄎ
이명박
세부
계좌
외모
##유럽
무렵
삼아
종로구
이집트
해제
피고인
미치는
유나이티드
누군가
연금
일이다
안방
체육
적응
가사
탈당
헝가리
도움
##li
시작한다
대처
입지
늘고
기지
청문회
한국전력
##버그
부족한
언급했다
유학
영광
변동
압수수색
챔피언스리그
승격
즉각
붙어
##클리
비교해
모자
셰프
##ᆨ션
광화문
본회의
근본
유일하게
동작
##ill
엠
랩
치열한
배당
충전
돌아와
##ᅣ
기뻐
뮤직비디오
사무총장
강세
전날보다
커지고
##인들의
##쉐
##79
일각에서
닫
##스러워
투명
멀리
##83
밖
이대호
소집
집합
UEFA
시진핑
티켓
##극장
##투자증권
신중
기온
전망했다
자율주행
멈추
페스티벌
의뢰
침해
추경
##EC
##92
단속
##워크
서명
보존
1950
폐기
##무라
김병
아이폰
관람
##께서
떠났다
##들었다
##됐으며
보컬
창립
뚫
일찍
초과
달한다
입원
신세계
필요성
87
그랜드
콘셉트
##高
감독님
메뉴
##핵
최신
이끌고
마이클
와인
주변에
##ᆼ글
##스트라
빌려
##스럽게
진행하고
컬러
휴가
##ᆻ으므로
좌우
홀로
쌀
성립
셰
의견이
합동
의혹이
이어지는
##괴
##62
이라크
대법관
현대캐피탈
##87
##대교
업체들
##자원
엔터테인먼트
추정된다
##74
추석
##쇄
살려
요청했다
집계
부담이
하원
정규리그
실천
##59
크로스
구성되어
파업
de
오리
좋았다
##에너지
생성
루이
나쁜
변수
고전
대통령에게
뼈
기상청
에릭
ᄋ
##컴
86
오빠
임상
훼손
재건축
펼친
##먼트
김승
건국
##61
제압
##해지고
##est
재판에
유행
압도적
지켰다
모른다
기다려
##네스
건립
탓
##테르
##ak
##ver
##41
한국어
##DC
##륜
광역
보여줬다
##모델
이끌
여권
##융합
통증
캐스팅
갖추
취재
지위
공원
주간
1945
정무
단장
성추행
조별리그
##루스
그럼에
성장률
##놓은
##에게서
CNN
충북
협업
취약
권고
북한과
06
나오지
믿고
보태
##구장
최정
패키지
조명
계정
신곡
작곡가
지자체
잠실구장에서
700
실망
꾸며
고유
벌였다
분명히
양자
마산
상당한
실패했다
없지만
동일한
기업인
종종
화웨이
##여명이
합쳐
설비
설립된
비록
스페셜
신용
MY
경매
##ᆯ내체육관에서
com
따뜻한
많지
취재진
케이블
추적
논리
##칼
거다
##하라는
넓은
부실
도시로
집중력
질병
비중이
활용한
시청률
운영하고
스틸
즉시
아티스트
적극적인
선보인다
포토
국장
입찰
불린다
지니
##IA
몸에
삭제
관료
내지
대변인
토대
맞지
##校
죽은
보조
주목받
출간
보며
벌어지는
##테이션
##협약
##플러스
숨진
##둔
##ers
캔
이모
##코스
대로
함수
환호
##IP
아스
예쁘
핀란드
독특한
취급
##ist
아버지가
클린턴
##北
##략
VIP
동시
극본
아기
포스터
정성
생각하는
##클래스
반대로
##DA
##없
느낄
몰래
##사령부
수상했다
##우드
출신으로
잃어
다가오
작품으로
쏠리
여객
슛
일본군
요구하는
##기념
방송된다
다음달
라인업
이어질
행성
신성
##av
JTBC
꼽힌다
##책임
페이지
신형
기원
##스톤
부분은
사후
##시민
대타
킹
간다
막판
##버려
중부
가져가
##정치민주연합
위즈
완공
##레이션
아키
개설
거친
##용품
##AC
편입
##라운드에서
사업자
만든다
컵
아르헨티나
##南
않았던
탑
##me
부모님
##티스
작동
장난
웨이
집계됐다
기록하고
선생님
유연
성관계
국제사회
파주
단순
사이버
전술
수상자
끌
동료들
강요
규모로
##조치
측에
변화가
실종
##ex
청춘
##랩
중심의
다음날
울리
문화재
흡수
생겼다
영화이다
##르크
위안부
겪고
순서
창단
1500
거짓말
이것이
##심에서
흉
퇴직
기기
매수
않지만
면적
정면
포토타임
양측
금메달을
김선
맞다
라이프
전무
거대한
##라이브
빙
신선
##연전
채워
##최
마사
손해
##률은
있음을
옆에
합작
다이노스
선두타자
미친
핫
고속도로
고속
##보면
잇따라
##언더파
##ER
##셋
05
생일
긍정적인
##블리
마이크
##韓
CGV
자식
발견된
내세워
##광장
폭탄
##금액
베를린
Sh
##앞
가계
93
페이
화이트
##명에게
국적
##AT
화장실
롯데그룹
깔
기준금리
현직
##드라마
부분에
평택
250
시작됐다
걸린
##차량
회의에서
지난주
소문
발탁
받았고
##사이드
경상북도
민주주의
영향으로
선발로
무관
찍은
이용자
철저하
확인했다
사립
면세점
표면
포르투갈
반란
파티
담고
정황
왕조
라이온즈
위치해
선보인
크라
국토교통부
박스오피스
이탈
##겸
아예
반성
돌리
입사
맡기
##하느냐
기획재정부
컨디션
곁
별명
범인
##세이브
##73
유재석
후배
##ue
금속
등장했다
터뜨리
즐겨
몽
들려
지역구
편의점
##획
##드래곤
찍어
바이러스
##왔던
드림
조선시대
존중
벌인
개막전
and
##ou
재능
영웅
조항
고양시
백화점
아쉬워
개시
##만원으로
없게
등장하는
누르
인원
베이스
개성
##년만에
디자이너
오랫동안
또다시
##ᆯ렌
1983
##하였는데
지나가
방법으로
놀이
경상남도
붙잡
##회담
경찰청
복원
밀리
어벤져스
불구속
확률
##연합회
시범
아니면
적합
기대한다
페르
컴
로버트
격차
외신
몽골
to
갖춰
정수
놀
##부분
최소화
아마존
배상
불렀다
##켓
130
식민지
코트
시청자
단축
삼성화재
아무러
환경부
도와주
끝내기
연료
국무위원장
병력
들어와
채우
퓨
사망했다
용의자
주장하는
일원
긍정적
무한도전
기각
메리
질환
둘러싸
곳으로
##CO
부서
하계
집으로
완벽
양상
해산
디스플레이
1982
서구
●
##효과
##트릭
방문한
안산
서브
##교섭
##IN
뉴질랜드
폼페이오
줄어든
##1000
추측
##그라
흔히
##되도록
##여자
예매
경비
##혜진
톰
진영
뿐이다
브렉시트
삼성물산
스트레스
궤도
계승
갈라
내놓은
직장인
그라운드
달성했다
국왕
와서
김희
정확히
쾌
닭
산다
##치료
일반적인
유명하다
하위
박병호
어울리
심지어
한국시리즈
가야
마리아
얻을
상속
##했어요
생겨
시계
해임
##영화제
전망된다
이병헌
##공개
배달
묶
##TE
##아메리카
기업들이
치러
수비수
근대
동참
##타자
면접
##처분
##분께
##혁신
격려
##ᆷ으로써
##新
##점슛
대표와
대표적
##ᆻ을까
갖는
##미술관
자연스럽게
재배
일요일
##땅
납치
공주
기자회견에서
횡령
##푸드
목사
명확하
참여하는
##국제영화제
펼쳐진
손상
호평
퍼포먼스
상금
##비율
##ity
다양하
동양
멜로
##오르
지출
명시
##道
##93
문구
##럭
무실점으로
스카이
94
##팀장
철회
##해질
천연
##탐
알려
라면서
투쟁
##TS
##년대에
##무대
##城
전용면적
키움
사용된다
쪽으로
##if
##이므로
##AN
국산
##간에
비전
##개월간
윤리
##『
둔화
##스틱
83
사회주의
무상
##시리즈
개장
선정됐다
An
##상황
##경기장에서
털어놨다
취하
가져오
한층
##했어
배경으로
서버
요건
흘리
높았다
기후
GDP
##버렸다
트렌드
소식이
조사에서
않을까
본래
묻자
바른미래당
선보여
##81
박물관
확신
선언했다
##ᄑ
위상
불가피
갖추고
##ᄒ
##줘야
에는
재미있
분포
관할
주류
VR
자택
##원장
기자들과
출근
가상화폐
밖으로
전라남도
떨어지는
FTA
노후
대안
품목
##어스
공식적으로
##할까
##ce
로맨스
의하면
식으로
브라운
역전승
##ard
동네
이루어진
합성
도달
현안
##故
디젤
말까지
마스터
리스크
##준다
논쟁
##to
부임
##노조
양산
출신인
사전에
조달
##na
단순히
체결했다
가짜
즉위
이어지고
엑스
대수
서양
잭슨
높여
규칙
발레
우수한
헨리
아니고
엑소
여사
면담
호수
##현대
육상
##세계
뒤늦게
프로듀서
벌써
항공사
불과하다
이겼다
김포
내보내
공시했다
##골프
마련했다
##ᆯ랜드
##티아
설치된
일치
내세우
생각하고
해킹
크고
##MI
##효율
여배우
내수
측면에서
OK
여겨
##렛
날려
추모
트랙
MVP
국무부
##궐
시카고
##셜
##채널
유죄
##ti
##경쟁
냉장고
두번째
운항
발생하는
공백
92
##회까지
항목
끊어
이뤄졌다
##pe
뻔
데이비드
강렬한
벨기에
몫
비트
##투스
유형
갚
견해
채무
정규직
사임
##궈
사랑하는
텍사스
바른정당
갖게
경위
일으켜
당사자
마블
죽어
인사들
##사키
확실히
국토부
##년째
검은
타이틀곡
##톡
철거
그레이
학술
양식
##ate
비서실장
마포구
##블로
꼽았다
침체
꿈꾸
석탄
카르
부르는
집행유예
끊임없
학부모
항소심
질주
용기
##해줘
##마르
이어져
과학기술
크로
##생산
나쁘
##ub
에피소드
마드리드
크리스마스
최우수
학문
##ᆻ더라
일으킨
알려주
돕는
##Z
##IS
##워드
##軍
메모리
탓에
##TI
제안했다
토트넘
매니저
무조건
편리하
표명
발표된
선제
1979
##되었던
경찰관
측근
무선
야권
진주
칼럼
용산
토크
1981
##마트
##ud
사연
벌이고
아니어
승용차
사람에게
##카운트
##ec
의정부
수익률
명품
정원
##청장
트레이드
##되지만
##베스트
중순
사람들에게
Me
미칠
신조
남긴
편안하
어떠한
얻는
사용되는
DJ
일산
시속
교차
던졌다
CCTV
연세대
##박물관
앓
##ᄆ
##ment
##강전
가입자
게다
##ES
##질환
보건복지부
위대한
##데스
저렴하
##pr
시청
##og
리얼
준공
뚜렷
성매매
여왕
과장
엄격
아트
청소
##up
미드필더
##女
##노동조합
테이블
다르게
구성원
합리적
신제품
110
접속
무대에서
문건
춘천
예정인
씨와
바뀐
진행되는
병역
시작하였다
힙합
서초구
클라우드
견제
##야말로
방북
쫓
##法
마침내
쓰레기
근로
뛰어나
중심지
##바르
유치원
되찾
준우승
다짐
접전
믿음
생애
##제약
공세
개최된
##iv
프라이
배정
##축제
북측
벌여
물류
좌전
##bsp
대우조선해양
하차
통일부
비공개
##ev
140
아이템
소셜미디어
어려울
##ci
선발투수
팔아
##인민공화국
미안하
차종
##스토어
##아프리카
##판매
알바
##운영
버티
제출한
김일성
www
##海
특화
공산당
##혁명
##필름
반격
쿠바
가까워
차세대
##프로그램
어른
공익
최고경영자
현대중공업
모르겠다
공중
여파
힘들다
흑인
제시했다
보여주고
귀족
배려
사우디
급여
연산
##스타즈
##궤
복면가왕
출동
아산
좋게
발목
##센트
아니지만
등판해
예수
##義
##사람
##들로부터
##해준다
정상화
배포
인용해
##싸움
평범하
아나운서
성폭력
피아노
조금씩
남다르
내달
바뀌었다
보면서
것보다
설레
##시쯤
##ON
고객들
우리카드
친박
숨겨
WSJ
류현진
외곽
끼치
경유
별다르
##DS
오스트레일리아
넣었다
##AF
제공하고
포장
한글
충족
##닥
등극
가까
불거지
해당한다
전통적
세계적으로
선생
드론
동계
##事
노르웨이
아시안컵
양현종
알파
1978
현황
급등
얻고
뷰티
##셔서
레오
무력
효율적
금품
솔루션
우크라이나
##公
##ᆼ렬
##콩
1974
##노스
달렸다
##파운드
##he
##끔
적절
맞춘
##ip
있느냐
생물
그러다
구원
##중공업
트와이스
##뤼
예외
완벽하게
회원국
불참
색깔
오토
일방적
##냥
벤치
담아
한국은행
##저우
##미디어
##ma
높게
당분간
보험료
사운드
연구개발
아무리
발생할
참전
단행
빅데이터
##뽀
근육
토요일
조율
입건
밝혀졌다
열릴
##계기가
##올라
##방안
조현
위안화
면모
폴리
수차례
났다
이어가고
##AM
갖는다
입대
가맹점
유승민
##넥
동대문
첫날
풍경
사망자
벌어졌다
##였으며
김현수
##모씨
국가들
밝은
##∼20
##박쥐
융
##블레
##캠프
작사
배워
위치하고
대법원장
모스크바
당부했다
CD
주차장
##챔피언
게재
김광
맞게
##ld
합의했다
빨간
연준
재계
복무
골밑
핵무기
겉
##됐을
CAR
늦어
창작
##농구
편이다
방면
##펠
Le
##무늬
입구
선수권
사내
승차
원자력
##ber
켈리
연예
갑작스러
공판
##지방법원
후임
당내
##펑
레스토랑
조선민주주의
교통사고
싫어
김무성
##되었는데
##직원
추진하고
##박람회
##커스
외치
못하게
##공화국
참가자
##사이트
##홈쇼핑
##보고서
우정
더민주
##뇨
그럴
서민
침입
넘겼다
로켓
##지현
약세
1972
지속되
하락한
##OP
##디스크
가담
##오픈
정밀
폭스
##법원
금메달
보이며
오디션
욕심
여건
뜻한다
분열
총선에서
원정경기
##CA
명성
##MC
반대하는
마이크로
손해배상
맞춤형
중견수
풍부한
익숙
제휴
게재했다
행복한
조합원
엔트리
경제학
법칙
든다
전투기
하더라
끝났다
##이었는데
감추
도박
##ang
##ant
신작
분당
등장한
유지하고
흔적
해방
##ly
짓고
클로
폴크스바겐
풀이된다
여섯
플레이어
1975
응용
충청남도
보험사
전투에서
중요성
##방식
열기
골드
상당수
주었다
유족
쇼핑몰
이끌어내
학위
할아버지
입었다
탈북
1973
졸업하고
정의당
##바퀴
##해줄
연루
궁금증
##자본
유럽연합
육아
경기력
주목된다
맹활약
선제골
진전
태양광
없기
동아시아
영양
도약
입력
비트코인
모으고
쓰인다
믿어
크루즈
진행할
충분한
##주간
납품
창설
청탁
쓰지
국무장관
##쭈
스티븐
카타르
후손
질량
보여준
높이고
열대
##킴
여겨지
##공연
UAE
사용하여
##테스
이마트
이용하여
시사회
##ran
데이트
혼인
이곳에서
인용
##ᆱ
##화인민공화국
메달
딴
발견됐다
경호
랭킹
리더십
광복
아이콘
##ect
기대된다
전달했다
거래소
부패
백종원
다저스
1930
##man
노벨
당원
철저ᄒ
페이스
##팡
##방향
##받으
개척
##川
##해주고
재생
잠정
푸틴
##di
내외
설치되어
##q
##스타디움에서
##ain
여성들
긴장감
##ᅤ
##2⁄3
끌어올리
코엑스
##하이닉스
선수들에게
##ho
목포
사냥
##담당
##ET
##되었지만
야외
##ID
인천공항
이뤄져
대사관
석방
난다
감사하다
철도역
검토하고
발효
BBC
마쓰
숨기
해커
터뜨렸다
##1⁄3
살아남
끝으로
확정했다
##코프
판문점
단순한
kr
실업
닿
예상치
전략적
##MB
오키나와
##홀딩스
유포
현대건설
##캡
##매체
##io
탔다
그날
호응
1948
쏟아내
눈치
탐사
넣고
##민주당
이례적
음식점
1976
##오카
##pl
현대모비스
워낙
IMF
이승엽
솔직하
1971
##유플러스
아마추어
##벨트
빅뱅
하노이
터널
지붕
지불
싶지
전시회
##前
휴대폰
선진국
살아나
빠르
시범경기
##중심
##ME
패널
사찰
천황
스피드
이메일
스파이
패턴
터져
꼬리
이끈
본명
뛰어넘
넣은
모르게
##해준
맺고
##one
주위
자카르타
상향
어린이집
여신
##있게
조만간
아랍
발급
손가락
끈다
분들이
사라진
##평화
##EA
##正
빌보드
송파구
사흘
허락
##콘서트
권위
것인가
존경
챙겨
##해줬다
나타냈다
##TA
##長
의약품
우익수
타석에서
##ov
재판장
##뒤
##동맹
있었기
숙소
민정수석
금융감독원
좌석
노력하겠다
따내
##ᄂ
담았다
침묵
상륙
선포
##민족
산업혁명
이동통신
박씨
남쪽으로
담겼다
오랜만에
이르면
감탄
적절한
##맘
##ast
잠수함
던진
##플러
타자들
분량
##PC
##‧
##寺
##氏
##어시스트
코믹
##손해보험
평가전
##CE
대항
발간
몰랐다
먼지
바깥
오페라
알아보
참모
독립운동
포함됐다
1962
1977
##ong
쪼
자신에게
좌익수
떠올리
챌린지
촉진
##ng
YG
##특위
나카
수확
Ro
확실한
##띠
존재감
생겨나
촛불
운송
##맥스
##뷔
##뮤직
음주운전
잡히
당첨
##書
동력
느껴지
##바이오
숨지
어릴
##PA
##ack
생태계
앞장서
있었으며
삼각
##멜
##ob
##ff
밝혀지
##SI
##기업은행
확산되
극대화
풀리
##누스
헤드
청원
몸매
맺었다
이뤄질
들어온
재난
충청
체크
비정규직
##HD
뭔가
많고
백제
시달리
공방
본질
##하듯
##ian
걸렸다
김대중
무승부
트로피
##FM
실전
1963
노예
돌파했다
포스트시즌
같았다
리콜
Pro
재임
음료
Ar
##元
##ight
##딸
블라
흉기
##und
성실
억제
추산
면제
내다봤다
선보이는
억울
축구대표팀
막말
독점
버디
##對
잠실야구장
닥터
금융당국
늘어날
증권사
따냈다
심사위원
##승째
해운대
##놀이
인텔
1968
##천군
빌리
마스크
증가율
컨트롤
##쇼핑
쏘아
부정적인
유쾌하
묶어
연평균
방출
주축
대가로
##분간
녹색
1964
올스타전
유효
##RS
##GB
사격
쐐기
개그맨
##연속
달라진
초점을
특혜
숙박
급락
##AD
##화체육관광부
국가주석
주니어
상대방
##넘
대다수
##ᆲ
##득점으로
횡
##TC
박명수
남기고
올리며
잡아내
##IT
##Wh
일어났다
레드카펫
##明
노하우
섭취
코스피지수
녹화
DNA
있었으나
##RO
##ae
##일종이다
##하러
##朴
단백질
꼽히는
찾아내
##졌으며
담장
권유
독재
##졌지만
모색
뜨겁
판타지
##겠습니다
문장
전체적으로
어렵게
흑자
무덤
재발
##작업
동행
겪어
##이었으며
1969
벤츠
##겹
군사적
불확실성
증정
##RT
##단장
가끔
국채
냄새
납부
Th
##정상회담
Br
법인세
TF
지향
##SP
기술력
##☞
생중계
금호
힐링
채권단
회전
산업은행
##됩니다
그걸
섹시
뽐내
자매
겨우
##Δ
마이너스
임무를
스코어
선보이며
나눴다
김태균
막아내
수익성
커졌다
##삼성
1920
##컴퍼니
##뱅
첫째
##면세점
참사
건축물
절감
차지하고
산맥
##mo
비슷하
핸드
블룸버그
놓여
증세
교토
1940
1965
통하여
오염
위탁
개최한다
그렇다면
헌재
담보
포함되어
기자들
청산
꽤
애플리케이션
웹툰
가리키는
로이터
양쪽
##놓았다
부위
왜곡
솔로포
조지아
##플랜
농민
조선일보
잊지
##평론가
##아파트
만찬
느꼈다
기습
색상
부작용
대상자
민생
쉬운
##쥬
구멍
##산업단지
본관은
면역
브래
목동
완승
치매
##보살
항구
즐거운
발견된다
##ass
각본
선거구
보조금
제기되
##공신
레이스
과감하
어쩔
##닷컴
바르셀로나
##政
##껴
고구려
소녀시대
이승만
웨스트
탄탄하
걸었다
분들
승률
홍준표
그만두
그래픽
않으며
음력
##iz
막내
##지방경찰청
전망치
특별히
집값
교과서
##마루
##no
만들어졌다
가볍게
뒷받침
##宗
최하위
강정호
데리고
##됐는데
##our
감축
농촌
과도한
진행되고
달아나
합계
빚어
로스앤젤레스
##파이어
부위원장
KDB
추정되는
출연한다
쓰이는
골목
##닉스
스코틀랜드
득표
찍었다
검거
배후
건강보험
살짝
금융권
예산안
안보리
터진
빠져나가
인테리어
##反
##無
선보일
루이스
구성된다
고객에게
##CI
훌륭한
크지
침공
보여줄
##光
넥슨
순으로
치킨
받았던
##웨어
장거리
IoT
시가총액
플로리다
UN
위주로
돌아서
달라지
##NE
##하셔
초래
강등
##착륙
포함돼
일환으로
프리미어리그
거짓
달아났다
중이던
생산량
계단
헌법재판소
##野
You
인건비
눈빛
검사장
며칠
지침
##per
여러가지
지방선거
부족하다
구별
공헌
크리스티
국회의장
체코
박정희
지켜봐
업그레이드
우연히
낙찰
##선수권대회
He
##되던
칠레
알았다
겪었다
미얀마
사우디아라비아
##院
Tr
1967
날렸다
잡혀
양의지
팽팽하
단편
금요일
쟁점
연쇄
올스타
##ᆫ천국제공항
##콰
충실
스님
자유롭게
간편
처형
뽑아내
뽑아
기본적으로
주둔
실시한다
초등학교이다
효과적
없던
칼리
맑
준결승
뜬공
승무원
여객철도
꾸준하
##AL
기성용
##나갈
비대위
추첨
민중
벌이는
좌절
##샵
##×
하이브리드
##스퀘어
퇴장
커브
KBL
##붕
등장한다
데뷔전
불가능하다
열연
이정현
미뤄
프랜차이즈
흰색
바꿨다
날짜
국가안보
쏟아지
좌파
대대적
##西
낚시
동향
착공
갖췄다
블로킹
늘어났다
##RA
##쌍
컬렉션
##ᅡ
옛날
드레스
펼쳐졌다
##미사일
유대인
간판
푸른
LPGA
슬라이더
##京
시너지
쫓아
면허
##RE
하와이
##age
성남시
소상공인
감안하면
들어선
막히
피칭
결승골
김영철
기름
한동안
정상회의
오프라인
반박했다
인쇄
소셜
제기됐다
심각하
동결
Con
순조
계절
은메달
블로그
##뼈
팔리
1949
새끼
한국영화
망명
리듬
위력
베네수엘라
주한미군
세계대전
취향
경영권
김재환
1966
멋
자아내
##成
상암동
##자산운용
정준영
기재부
죽었다
촉구했다
랜
걸친
##ace
KLPGA
샌프란시스코
전라북도
한진해운
##石
미치지
물품
중앙은행
##끝
이르러
식량
##하냐
진압
게이트
순매수
드디어
스프링캠프
주고받
ICT
슈퍼맨
부정적
상태였다
턱
내놨다
라이벌
##통합
월급
##MD
잇달아
맞붙
세미나
임명되었다
금융위원회
이룬
이재용
챙겼다
##end
##행복드림구장
내셔널
##男
IBK
정확하게
공동체
계층
이루는
순천
머물렀다
찰스
##샘
가깝다
확립
맡겨
2022
##ome
내줬다
기쁘다
드래프트
##太
##水
뉴욕타임스
소규모
전당대회
저지른
##금융지주
평가받
##앱
##됨에
싸워
소폭
고척스카이돔
셋째
신태용
두려워
##등록
창업자
병행
##태평양
리틀
확실하
##EL
표결
낮춰
워너원
윈도우
마이크로소프트
적었다
크게보기
들어간다
한화생명
행운
금융회사
거두며
들어왔다
급격ᄒ
올라섰다
얼음
혈액
1941
있음
놀라게
##ug
유권자
감옥
항복
비주얼
다행히
젖
바뀌어
1946
##소프트
##블러
극찬
하향
티저
일찌감치
##陽
첼시
토론회
이룬다
##레이터
아우디
염두
##EX
우즈베키스탄
오프닝
흙
문제점
확충
아픔
라이언
영등포구
넘어섰다
혼합
검출
자발적
##NC
비슷하다
알리바바
스윙
##스트리트
레알
언제나
##ib
##SE
비교하면
부친
##é
스케줄
##인삼공사
##ens
나뉘어
퀸
놀라운
상승률
##신탁
동남아
OECD
##生
개성공단
보도자료
존슨
기쁘
법학
##田
이루고
1961
요새
체류
##시키며
지상역
##주머니
주도권
고고도
동메달
##性
탄도미사일
##ᆻ듯
간접
계급
##PP
복지부
부통령
쌍둥이
확진
경쟁률
다가가
거듭나
재계약
신앙
새정치연합
아쉬운
##德
힐러리
객관적
청나라
섬유
##OT
탄력
NYT
미래에셋
한마디
흡연
멍
네티즌
빨라
##캠
뽐냈다
go
ICBM
쇼케이스
니퍼트
야간
무효
상위권
연이어
보여줘
콜롬비아
##어지면서
신용카드
초반부터
##쩍
##업통상자원부
카리스마
프로모션
얻기
버튼
##역학
특급
##SK
옳
거머쥐
횟수
관람객
##PM
일으켰다
##사업부
즐겁
##小
때려내
점심
통계청
펜스
##門
사로잡았다
##토록
연합군
출력
워터
for
##主
사회공헌
외야수
근로시간
욕설
코스피
급격하
맨체스터
월화드라마
디즈니
끓
##종합운동장
불륜
제조업체
네티즌들
##변호사
아랍에미리트
챔피언결정
##地
##親
세르비아
나성범
내놓았다
##FA
##IV
지방자치단체
##자책점
닮아
LED
몰입
##ord
놀랐다
다큐멘터리
다툼
래퍼
금융시장
##bo
집필
1954
대략
민주화
내려오
드루킹
##本
남자친구
부적절
토마스
주먹
##아일랜드
기자간담회
##디자인
이르렀다
열풍
이뤘다
스캔들
국정감사
스릴러
겹치
월세
보스턴
거둬
http
비례대표
트위
개인정보
영혼
화폐
##CS
레코드
1958
치렀다
##府
KTX
고위급
##이에요
##ᅰ
민주노총
##・
##行
대북제재
흘렸다
##바닥
경제부총리
블록체인
##武
최형우
폭풍
김광현
불안감
잃었다
접목
뮌헨
멸망
##떼
플로
##ark
르노삼성
아르바이트
황교안
선고받았다
피해자들
##앵
벤투
FT
##ear
##神
신동빈
##모터쇼
##레이드
책임감
1956
많으
##스페이스
##RI
논평
결함
줄이는
소속팀
광저우
라디오스타
폭염
엿보
##ᆸ니까
구체적
##CL
##ᄀ
히어로
##여자프로골프
아테네
명목으로
강동원
##공무원
##仁
##原
플라스틱
##ED
담아내
사라졌다
1947
Un
끌어내
##μ
끌려가
##국민은행
센서
훔치
기소됐다
##使
엇갈리
가르쳐
월간
##ᅪ
정규시즌
객실
김구라
##DD
1944
학살
참가자들
헌신
##都
막대한
##원숭이
찾아온
시민단체
##OR
용산구
관할한다
##하므로
다뤄
##會
국세청
젊
##롯데
##커뮤니케이션
순식간에
여자프로농구
웹사이트
선취점
소멸
치러진
좌측
느리
##월스트리트저널
부산광역시
알고리즘
한국시각
##슈타인
없도록
나뉜다
국제공항
가해자
만들겠다
아무것도
홋카이도
자존심
무소속
##번타자
##ide
##롯데월드
적힌
##촬영
##ind
제기된
##ᅲ
##∙
사법연수원
하버드
아사히
선배님
행렬
##ᆼ턴
제치
##等
이르기까지
가벼운
공산주의
##플렉스
후배들
절친
##시키려
수목드라마
히로시마
바둑
연예계
없음
프리미어
1959
커버
MOU
하셨습니다
되겠다
러닝
어쩌
통화정책
##그램
감찰
##ᄉ
##ᅧ
##인터내셔널
총괄회장
꾸려
출처
금융기관
##ence
퇴근
뽑았다
시행령
커다라
깊어
##디스플레이
##PI
OSEN
##君
광범위하
치솟
꾸미
동북아
투런
##앨범
퇴임
꾀
##郡
아쉽게
여동생
쓰러져
이겨내
올시즌
불공정
포털
##ᆻ는가
적혀
##民
멈춰
또다른
##헬스케어
##ᅢ
##SR
##NS
견디
넷플릭스
런닝맨
##部
##칼텍스
안타깝
화려하
감싸
섬세하
프레임
가계부채
##컨벤션
바이에른
테슬라
거론되
##팬들
안드레
규명
오리지널
내륙
침략
##이었기
얇
##규칙
숨졌다
오승환
##닫기ᄀ
##MP
덧붙여
##ᄇ
중화민국
미스터리
롯데시네마
후계자
어워드
습관
농담
훗날
유희관
모듈
간호사
타이밍
잇따르
모양새
죄송
권한대행
그나마
상용화
멜로디
셀트리온
체인지업
고용노동부
소프트뱅크
충청북도
ACL
언제든
친박계
##ance
##저널
OLED
국무회의
근황
이광수
##ock
악화되
높아졌다
물고기
이목을
##쯔
##OL
업데이트
피츠버그
강민호
갤러리
밟았다
무너졌다
날아가
불꽃
볼턴
##ᅬ
컨소시엄
헛스윙
과징금
순매도
핀테크
장원준
와중에
##ᄐ
##敎
캡틴
##ᆺ돈
막혀
##□
##世
고맙다
##ture
사회복지
토론토
##EP
극심하
독자적
인사청문회
자리매김
##江
순이익
박용택
리처드
물리적
활력
손아섭
##BO
##ᄁ
대한축구협회
로맨틱
컨테이너
무거운
##tion
그려내
연습경기
레드벨벳
게시판
생생하
##랴
관계없
THAAD
##縣
정근우
줄이기
##ᆻ으니까
정보기술
##생물학
즐거움
##官
아쉽다
동성애
모니터링
호기심
곤란
##잖아
천문학
순방
청년들
투수들
머물러
애널리스트
파키스탄
##近
주말드라마
##이글스파크
궁금하
넣는
임진왜란
다채로운
사령탑
경제성장률
에어컨
살아있
압축
이순신
좁은
Mnet
좌중간
후쿠오카
인디언
법조계
트리플
탄압
착각
리버풀
크로아티아
기아자동차
신흥국
가디언
좌완
침몰
유소년
과잉
없습니
되돌아
하이파이브
희생플라이
##꿔
부드러운
##相
사외이사
설문조사
##▷
연달아
##괘
국가정보원
박원순
태극기
천주교
##ᆻ구나
행정구역
보여드리
황재균
거예요
황정민
시드니
##ᆯ곧
이어갈
린드블럼
자영업자
송중기
대주주
검은색
젊은이들
##드립니다
전성기
전형적이
##콘퍼런스
퀄리티
흥국생명
알렉산드ᄅ
전지훈련
오렌지
개신교
도망가
세련되
포켓몬
요미우리
몸무게
며느리
비영리
월요일
임시정부
롯데마트
수록곡
사이클
임대료
##ㆍ
멸종
원활하
일곱
얻게
효율성
##월드컵
##분들께
살펴
##ᄃ
##★
##心
메가박스
넓혀
풍부하
##쏘
##과학기술
##ᅩ
요코하마
테임즈
어두운
장학금
가솔린
카카오톡
중소형
투런포
##아버지
거주하
애리조나
폭넓
고성능
소비에트
유가족
머무르
그려져
지지자들
치명적
휩싸여
##不
##島
##興
삽입
닮은
움직여
해병대
맡는다
하얀
죄송하다
궁금해
명예훼손
##經
##習
아름답
김신욱
저작권
규탄
버리고
아가씨
금호타이어
쿠데타
경희대
동점골
유입되
워싱턴포스트
##白
브레이크
상원의원
비상대책위원
홈플러스
김하성
접어들
트레이닝
##DR
성희롱
초등학생
##趙
습격
페르시아
하정우
성공시키
스타디움
##CH
롯데백화점
버텨
한나라당
레전드
##해지면서
##林
민병헌
압구정
온갖
호랑이
극단적
영등포
토너먼트
##慶
##케미칼
휩쓸
벤처기업
장례식
도둑
종업원
미니앨범
텐데
주주총회
서울고법
결렬
##역세권
블록버스터
시중은행
봉쇄
김수미
한숨
##°
EXID
안드로이드
단말기
탁월한
붙잡혔다
가습기
0059
예정이라
솔직ᄒ
가이드라인
무슬림
전경련
##메이커
##ction
남중국해
색다른
송강호
태권도
국방장관
교도소
스미스
낫다
최순실씨
##司
##⋅
끼쳐
New
법무법인
엘리베이터
한꺼번
귀여운
올바른
꼼꼼ᄒ
앵커
과태료
박나래
추기경
동남아시아
하드웨어
슬픔
멘토
오스만
뮤지션
##社
류준열
두려움
정책위의장
자릿수
타이완
화요일
돌아보
돕기
희귀
vs
털어놓
##위즈파크
황의조
갤럭시노트
오케스트라
유가증권시장
저소득층
근접
스타들
광주광역시
잠재력
믿는다
어긋나
센트럴
닛산
풀려나
##깨
무엇인지
유동성
나뉘
실업률
현대백화점
##里
아시아나항공
##朝
##和
##漢
##戰
##夫
##忠
##華
##馬
##非
##ᄄ
##之
##內
##晋
##靑
##代
##古
##河
##理
##羅
##所
##洞
##面
##五
##方
##知
##聖
##永
##記
##黨
##佛
##臣
##ᄏ
##ᄊ
##ᅫ
##а
##鄭
##下
##化
##後
##皇
##松
##時
##善
##定
##ᄌ
##尹
##自
##倍
##淸
##о
##通
##劉
##市
##張
##α
##ᄋ
##²
##`
##и
##外
##者
##春
##ᆪ
##ᆞ
##將
##の
##寧
##師
##二
##堂
##權
##ᅨ
##帝
##名
##宮
##立
##路
##木
##士
##禮
##有
##℃
##十
##四
##樂
##昌
##吉
##基
##與
##郞
##英
##ᅴ
##崔
##廣
##孫
##業
##雲
##ᆿ
##的
##н
##眞
##先
##月
##信
##洪
##福
##像
##村
##省
##孝
##物
##守
##尙
##八
##圖
##論
##е
##治
##判
##老
##九
##線
##陵
##作
##兵
##周
##詩
##分
##臺
##萬
##驛
##ᅭ
##祖
##議
##身
##集
##•
##合
##建
##源
##體
##▼
##根
##流
##р
##星
##字
##歌
##殿
##監
##觀
##令
##侯
##制
##曹
##谷
##直
##黃
##左
##玉
##空
##動
##宋
##花
##度
##承
##車
##利
##壽
##泰
##語
##思
##見
##ー
##造
##風
##●
##典
##衛
##鮮
##實
##說
##命
##多
##憲
##柳
##章
##修
##康
##甲
##死
##津
##火
##發
##科
##音
##土
##á
##、
##六
##初
##吳
##數
##ン
##進
##鎭
##陳
##副
##運
##宣
##寶
##常
##位
##別
##場
##申
##式
##報
##族
##産
##用
##禪
##±
##к
##百
##侍
##强
##言
##@
##保
##景
##色
##ᄅ
##ο
##在
##形
##※
##弘
##御
##異
##傳
##力
##工
##溪
##濟
##盧
##貞
##☆
##應
##楊
##榮
##碑
##い
##徐
##秀
##с
##ü
##七
##口
##參
##国
##想
##船
##л
##富
##敬
##氣
##湖
##錫
##間
##關
##雄
##共
##印
##舊
##阿
##賢
##起
##轉
##達
##鳳
##麗
##延
##志
##智
##界
##禁
##藤
##處
##в
##♥
##如
##良
##任
##浦
##烈
##開
##首
##齋
##ó
##井
##塔
##藏
##解
##〃
##丹
##后
##唐
##恩
##朱
##ö
##出
##愛
##益
##蘇
##鄕
##í
##丁
##姜
##私
##千
##梁
##頭
##т
##員
##現
##電
##園
##ι
##意
##手
##沙
##․
##ℓ
##半
##右
##曲
##橋
##陸
##克
##商
##許
##魚
##^
##ä
##奉
##草
##郎
##靈
##ν
##團
##惡
##連
##錄
##防
##ā
##ᆴ
##亭
##勝
##畵
##豊
##遺
##博
##帶
##營
##脫
##農
##○
##儀
##器
##密
##惠
##沈
##波
##統
##諸
##結
##群
##，
##務
##容
##玄
##管
##伯
##品
##因
##得
##從
##澤
##紀
##舍
##術
##λ
##伊
##竹
##岩
##角
##鐵
##τ
##交
##佐
##受
##圓
##坐
##彦
##慧
##晉
##祭
##護
##域
##墓
##孔
##熙
##ς
##加
##協
##妃
##我
##顯
##鶴
##俊
##姓
##崇
##稅
##訪
##識
##超
##選
##し
##△
##ᅦ
##⁄
##ᅮ
##爲
##：
##■
##{
##}
##ᆵ
##$
###
##順
##來
##號
##館
##…
##節
##派
##功
##重
##年
##父
##同
##母
##史
##全
##龍
##–
##―
##上
##家
##』
##天
##美
##一
##日
##」
##中
##*
##;
##+
##”
##“
##|
##ᆬ
##〉
##>
##‘
##’
##=
##!
##]
##_
##/
##?
##:
##》
##~
##%
##-
##·
##(
##)
##'
##"
##,
##.
#
$
&
*
+
;
<
>
@
[
\
##\
^
`
a
g
i
j
k
o
q
r
u
v
x
y
z
{
|
}
ㄱ
##ㄱ
ㄲ
##ㄲ
ㄳ
##ㄳ
ㄴ
##ㄴ
ㄵ
##ㄵ
ㄶ
##ㄶ
ㄷ
##ㄷ
ㄸ
##ㄸ
ㄹ
##ㄹ
ㄺ
##ㄺ
ㄻ
##ㄻ
ㄼ
##ㄼ
ㄽ
##ㄽ
ㄾ
##ㄾ
ㄿ
##ㄿ
ㅀ
##ㅀ
ㅁ
##ㅁ
ㅂ
##ㅂ
ㅃ
##ㅃ
ㅄ
##ㅄ
ㅅ
##ㅅ
ㅆ
##ㅆ
ㅇ
##ㅇ
ㅈ
##ㅈ
ㅉ
##ㅉ
ㅊ
##ㅊ
ㅋ
##ㅋ
ㅌ
##ㅌ
ㅍ
##ㅍ
ㅎ
##ㅎ
ㅏ
##ㅏ
ㅐ
##ㅐ
ㅑ
##ㅑ
ㅒ
##ㅒ
ㅓ
##ㅓ
ㅔ
##ㅔ
ㅕ
##ㅕ
ㅖ
##ㅖ
ㅗ
##ㅗ
ㅘ
##ㅘ
ㅙ
##ㅙ
ㅚ
##ㅚ
ㅛ
##ㅛ
ㅜ
##ㅜ
ㅝ
##ㅝ
ㅞ
##ㅞ
ㅟ
##ㅟ
ㅠ
##ㅠ
ㅡ
##ㅡ
ㅢ
##ㅢ
ㅣ
##ㅣ
ᄀ
ᄁ
ᄂ
ᄃ
ᄄ
ᄅ
ᄆ
ᄇ
ᄈ
ᄉ
ᄊ
ᄌ
ᄍ
ᄎ
ᄏ
ᄐ
ᄑ
ᄒ
ᅡ
ᅢ
ᅣ
ᅤ
ᅥ
ᅦ
ᅧ
ᅨ
ᅩ
ᅪ
ᅫ
ᅬ
ᅭ
ᅮ
ᅯ
ᅰ
ᅱ
ᅲ
ᅳ
ᅴ
ᅵ
ᆨ
ᆩ
ᆪ
ᆫ
ᆬ
ᆭ
ᆮ
ᆯ
ᆰ
ᆱ
ᆲ
ᆳ
##ᆳ
ᆴ
ᆵ
ᆶ
ᆷ
ᆸ
ᆹ
##ᆹ
ᆺ
ᆻ
ᆼ
ᆽ
ᆾ
ᆿ
ᇀ
ᇁ
ᇂ
¡
¤
§
¨
«
°
±
³
´
»
¿
×
ß
ð
÷
œ
ə
ɡ
ɣ
ɨ
ʀ
ː
˚
̀
́
̃
̄
̈
̊
̌
̓
̧
͂
Φ
α
β
ε
η
ι
κ
λ
ν
ο
π
ρ
ς
σ
φ
χ
ψ
ω
–
—
“
”
•
‥
…
‧
‰
※
⁄
₂
₩
⅓
⅔
Ⅰ
Ⅱ
ⅱ
ⅲ
←
↑
→
↓
↖
↗
↘
⇔
∀
∇
∼
≤
≥
⊂
⊃
⊙
⌒
①
②
③
④
⑥
⑦
⑹
ⓒ
ⓛ
ⓝ
ⓞ
ⓥ
─
━
│
┏
┑
■
□
▲
▶
▷
▼
▽
◀
◁
◆
◇
○
◎
◐
◑
◯
★
☆
☎
☏
☜
☞
☻
♂
♡
♣
♤
♥
♧
♨
♩
♪
♫
♬
、
。
〃
〈
〉
《
「
」
『
』
【
】
〓
ぁ
あ
ぃ
い
ぅ
う
ぇ
え
ぉ
お
か
が
き
ぎ
く
ぐ
け
げ
こ
ご
さ
ざ
し
じ
す
ず
せ
ぜ
そ
ぞ
た
だ
ち
ぢ
っ
つ
づ
て
で
と
ど
な
に
ぬ
ね
の
は
ば
ぱ
ひ
び
ぴ
ふ
ぶ
ぷ
へ
べ
ぺ
ほ
ぼ
ぽ
ま
み
む
め
も
ゃ
や
ゅ
ゆ
ょ
よ
ら
り
る
れ
ろ
ゎ
わ
ゐ
ゑ
を
ん
ゕ
ゖ
゙
゚
ァ
ア
ィ
イ
ゥ
ウ
ェ
エ
ォ
オ
カ
ガ
キ
ギ
ク
グ
ケ
ゲ
コ
ゴ
サ
ザ
シ
ジ
ス
ズ
セ
ゼ
ソ
ゾ
タ
ダ
チ
ヂ
ッ
ツ
ヅ
テ
デ
ト
ド
ナ
ニ
ネ
ノ
ハ
バ
パ
ヒ
ビ
ピ
フ
ブ
プ
ベ
ペ
ホ
ボ
ポ
マ
ミ
ム
メ
モ
ャ
ヤ
ュ
ユ
ョ
ヨ
ラ
リ
ル
レ
ロ
ワ
ヰ
ヱ
ヲ
ン
ヴ
ヵ
ヶ
ヷ
ヸ
ヹ
ヺ
・
ー
ㅤ
ㆀ
ㆍ
㈔
㈜
㎏
㎐
㎒
㎓
㎚
㎛
㎜
㎝
㎞
㎡
㎾
㎿
㏄
一
七
万
三
上
下
不
世
丘
丙
业
中
丸
主
乃
久
之
乙
九
也
乾
亂
事
二
云
五
亞
亡
产
亭
亮
人
仁
介
他
代
令
以
件
任
份
企
伊
伏
伙
伺
佇
位
低
住
佐
佑
佛
作
使
例
侍
侖
侵
便
係
保
信
們
候
倭
假
偈
偰
傑
備
僞
儀
儒
元
兄
先
光
兒
內
全
公
六
共
关
兵
典
兼
凡
凱
凸
刀
分
切
刑
初
判
別
利
制
券
刻
前
剛
副
劉
力
功
加
助
勅
勇
動
務
勝
化
北
匪
區
十
千
午
協
南
単
博
印
厚
及
友
反
发
取
受
古
史
右
司
合
同
名
后
向
君
味
命
和
咨
品
哲
唐
唯
商
善
喜
嘉
器
嚴
囊
四
因
团
団
図
国
圈
國
圖
團
土
在
圭
地
均
坊
垄
型
城
基
堀
堂
場
塵
境
增
壞
壬
壽
変
夏
外
多
夢
大
天
太
夫
奧
女
好
如
妃
妙
姆
姓
姚
娼
婦
嬪
子
字
孝
孫
學
宅
守
安
宋
完
宗
官
定
宮
家
容
寅
富
察
實
寧
寺
專
尊
尋
對
小
少
尙
尹
尾
山
岔
岡
岳
峰
島
峽
崇
崔
嶽
巖
川
州
巢
工
左
巨
差
市
希
帝
師
席
常
幡
幣
平
年
幸
幻
庄
府
度
座
庫
庭
庵
康
廢
廣
廳
延
建
廻
开
弁
式
張
弹
强
弾
彈
彦
彩
影
待
律
後
徐
得
復
德
徽
心
必
忍
忠
念
思
急
性
恂
恨
悟
悲
情
惑
惠
惡
惱
想
意
愛
感
愼
慈
慧
慰
慶
憎
憲
應
戌
成
我
戒
戰
戾
房
所
手
才
打
承
技
抑
投
拉
持
捨
授
掌
排
探
描
摂
摠
擊
擧
改
攻
政
故
敎
敏
敗
教
敬
敵
數
文
斥
断
新
斷
方
旋
日
旦
旭
昌
明
易
星
映
春
昭
是
時
晙
普
景
智
曆
曰
曲
更
書
最
會
月
有
朋
朔
望
朝
期
木
未
末
本
朴
杉
李
村
東
松
林
果
某
染
柱
柳
株
根
案
梧
棄
棒
森
楓
楠
業
極
楼
様
樂
樓
標
橋
橫
檢
權
欲
歆
歌
歐
正
此
步
武
歲
歷
死
殖
母
氏
民
氣
水
永
求
汗
江
池
污
決
沈
沖
沫
河
治
法
泡
泰
洋
洙
洞
洪
洽
派
流
浦
浪
海
涉
涙
淇
淨
淳
淵
淸
添
渡
湖
源
滅
漁
演
漢
潟
澤
濟
濡
濬
瀑
瀬
灘
灣
火
炎
炯
烈
無
煥
煩
熙
熱
熾
燃
燈
爲
父
牆
版
牛
牧
物
特
猶
獨
獸
玄
王
玳
珞
珪
現
球
理
瑁
瑕
瑞
瓔
生
産
用
田
甲
申
男
画
界
異
畵
當
疏
疑
疵
癡
發
白
的
皆
皇
皿
監
目
盲
直
相
省
看
眞
瞋
知
石
破
示
社
祖
祗
神
禁
禍
福
禪
禮
秀
私
科
稅
種
穆
積
空
立
章
端
竹
笑
等
管
節
篇
簿
糞
系
紅
紙
細
終
統
絶
經
綜
網
緒
縣
縱
纏
经
罪
美
義
翔
老
者
耳
耶
聖
聚
聲
職
肅
股
育
能
脫
腸
臣
自
臭
致
臺
興
舊
舒
船
艦
色
芝
芭
苦
英
草
菊
菩
華
萊
营
萬
落
葉
著
蒼
蓬
蕉
薩
薰
藏
藝
藩
蘊
虎
處
號
蛇
蜀
蟲
血
行
街
衛
表
衫
袁
袍
被
裕
裵
製
西
要
見
規
視
親
覺
觀
解
觸
言
訓
託
記
訟
許
訴
試
話
語
誠
誣
論
諫
諸
謀
講
謝
證
識
議
護
變
讐
讓
语
豆
豊
象
貞
貨
貪
責
貳
貴
貿
資
賞
賢
贊
财
资
赤
起
身
車
軌
軍
軫
軸
載
輔
輸
轉
辛
辨
農
迎
迦
迪
迷
送
通
進
運
過
道
達
遠
適
遵
遷
邊
邪
郎
郞
部
郭
郷
都
鄭
醫
釋
里
重
野
量
金
釜
針
鈴
銀
鋒
錄
錢
錫
錯
鎬
鎭
鎮
鐘
鑑
長
門
開
間
閣
閥
關
防
院
除
陳
陸
陽
隆
階
隨
險
雄
集
離
難
雨
電
霆
露
靈
青
非
面
韓
順
頭
顔
顯
風
飛
首
香
馨
驛
骨
體
高
魔
鳥
鳳
麗
麤
黃
黒
黨
鼓
齊
龍
金
盧
老
綠
不
女
歷
聯
禮
龍
流
紐
律
慄
！
％
＆
（
）
＊
＋
，
－
．
０
１
２
３
４
５
６
７
８
９
：
＜
＞
？
Ａ
Ｂ
Ｃ
Ｄ
Ｅ
Ｆ
Ｇ
Ｈ
Ｉ
Ｊ
Ｋ
Ｌ
Ｍ
Ｎ
Ｏ
Ｐ
Ｑ
Ｒ
Ｓ
Ｔ
Ｕ
Ｖ
Ｗ
Ｘ
Ｙ
Ｚ
＼
＾
｀
ａ
ｂ
ｃ
ｄ
ｅ
ｆ
ｇ
ｈ
ｉ
ｊ
ｋ
ｌ
ｍ
ｎ
ｏ
ｐ
ｑ
ｒ
ｓ
ｔ
ｕ
ｖ
ｗ
ｘ
ｙ
ｚ
～
￣
##¡
##¤
##§
##¨
##«
##³
##´
##»
##¿
##ß
##ð
##÷
##œ
##ə
##ɡ
##ɣ
##ɨ
##ʀ
##ː
##˚
##̀
##́
##̃
##̄
##̈
##̊
##̌
##̓
##̧
##͂
##Φ
##β
##ε
##η
##κ
##π
##ρ
##σ
##φ
##χ
##ψ
##ω
##—
##‥
##‰
##₂
##₩
##⅓
##⅔
##Ⅰ
##Ⅱ
##ⅱ
##ⅲ
##←
##↑
##↓
##↖
##↗
##↘
##⇔
##∀
##∇
##≤
##≥
##⊂
##⊃
##⊙
##⌒
##①
##②
##③
##④
##⑥
##⑦
##⑹
##ⓒ
##ⓛ
##ⓝ
##ⓞ
##ⓥ
##─
##━
##│
##┏
##┑
##▲
##▶
##▽
##◀
##◁
##◆
##◇
##◎
##◐
##◑
##◯
##☎
##☏
##☜
##☻
##♂
##♡
##♣
##♤
##♧
##♨
##♩
##♪
##♫
##♬
##。
##【
##】
##〓
##ぁ
##あ
##ぃ
##ぅ
##う
##ぇ
##え
##ぉ
##お
##か
##が
##き
##ぎ
##く
##ぐ
##け
##げ
##こ
##ご
##さ
##ざ
##じ
##す
##ず
##せ
##ぜ
##そ
##ぞ
##た
##だ
##ち
##ぢ
##っ
##つ
##づ
##て
##で
##と
##ど
##な
##に
##ぬ
##ね
##は
##ば
##ぱ
##ひ
##び
##ぴ
##ふ
##ぶ
##ぷ
##へ
##べ
##ぺ
##ほ
##ぼ
##ぽ
##ま
##み
##む
##め
##も
##ゃ
##や
##ゅ
##ゆ
##ょ
##よ
##ら
##り
##る
##れ
##ろ
##ゎ
##わ
##ゐ
##ゑ
##を
##ん
##ゕ
##ゖ
##゙
##゚
##ァ
##ア
##ィ
##イ
##ゥ
##ウ
##ェ
##エ
##ォ
##オ
##カ
##ガ
##キ
##ギ
##ク
##グ
##ケ
##ゲ
##コ
##ゴ
##サ
##ザ
##シ
##ジ
##ス
##ズ
##セ
##ゼ
##ソ
##ゾ
##タ
##ダ
##チ
##ヂ
##ッ
##ツ
##ヅ
##テ
##デ
##ト
##ド
##ナ
##ニ
##ネ
##ノ
##ハ
##バ
##パ
##ヒ
##ビ
##ピ
##フ
##ブ
##プ
##ベ
##ペ
##ホ
##ボ
##ポ
##マ
##ミ
##ム
##メ
##モ
##ャ
##ヤ
##ュ
##ユ
##ョ
##ヨ
##ラ
##リ
##ル
##レ
##ロ
##ワ
##ヰ
##ヱ
##ヲ
##ヴ
##ヵ
##ヶ
##ヷ
##ヸ
##ヹ
##ヺ
##ㅤ
##ㆀ
##㈔
##㈜
##㎏
##㎐
##㎒
##㎓
##㎚
##㎛
##㎜
##㎝
##㎞
##㎡
##㎾
##㎿
##㏄
##万
##丘
##丙
##业
##丸
##乃
##久
##乙
##也
##乾
##亂
##云
##亞
##亡
##产
##亮
##介
##他
##以
##件
##份
##企
##伏
##伙
##伺
##佇
##低
##住
##佑
##例
##侖
##侵
##便
##係
##們
##候
##倭
##假
##偈
##偰
##傑
##備
##僞
##儒
##兄
##兒
##关
##兼
##凡
##凱
##凸
##刀
##切
##刑
##券
##刻
##剛
##助
##勅
##勇
##匪
##區
##午
##単
##厚
##及
##友
##发
##取
##向
##味
##咨
##哲
##唯
##喜
##嘉
##嚴
##囊
##团
##団
##図
##圈
##圭
##均
##坊
##垄
##型
##堀
##塵
##境
##增
##壞
##壬
##変
##夏
##夢
##奧
##好
##妙
##姆
##姚
##娼
##婦
##嬪
##宅
##完
##寅
##察
##專
##尊
##尋
##少
##尾
##岔
##岡
##岳
##峰
##峽
##嶽
##巖
##巢
##巨
##差
##希
##席
##幡
##幣
##幸
##幻
##庄
##座
##庫
##庭
##庵
##廢
##廳
##廻
##开
##弁
##弹
##弾
##彈
##彩
##影
##待
##律
##復
##徽
##必
##忍
##念
##急
##恂
##恨
##悟
##悲
##情
##惑
##惱
##感
##愼
##慈
##慰
##憎
##戌
##戒
##戾
##房
##才
##打
##技
##抑
##投
##拉
##持
##捨
##授
##掌
##排
##探
##描
##摂
##摠
##擊
##擧
##改
##攻
##敏
##敗
##教
##敵
##斥
##断
##斷
##旋
##旦
##旭
##易
##映
##昭
##是
##晙
##普
##曆
##曰
##更
##最
##朋
##朔
##望
##期
##未
##末
##杉
##果
##某
##染
##柱
##株
##案
##梧
##棄
##棒
##森
##楓
##楠
##極
##楼
##様
##樓
##標
##橫
##檢
##欲
##歆
##歐
##此
##步
##歲
##歷
##殖
##求
##汗
##池
##污
##決
##沖
##沫
##泡
##洋
##洙
##洽
##浪
##涉
##涙
##淇
##淨
##淳
##淵
##添
##渡
##滅
##漁
##演
##潟
##濡
##濬
##瀑
##瀬
##灘
##灣
##炎
##炯
##煥
##煩
##熱
##熾
##燃
##燈
##牆
##版
##牛
##牧
##特
##猶
##獨
##獸
##玳
##珞
##珪
##球
##瑁
##瑕
##瑞
##瓔
##画
##當
##疏
##疑
##疵
##癡
##皆
##皿
##目
##盲
##看
##瞋
##破
##示
##祗
##禍
##種
##穆
##積
##端
##笑
##篇
##簿
##糞
##系
##紅
##紙
##細
##終
##絶
##綜
##網
##緒
##縱
##纏
##经
##罪
##翔
##耳
##耶
##聚
##聲
##職
##肅
##股
##育
##能
##腸
##臭
##致
##舒
##艦
##芝
##芭
##苦
##菊
##菩
##萊
##营
##落
##葉
##著
##蒼
##蓬
##蕉
##薩
##薰
##藝
##藩
##蘊
##虎
##蛇
##蜀
##蟲
##血
##街
##表
##衫
##袁
##袍
##被
##裕
##裵
##製
##要
##規
##視
##覺
##觸
##訓
##託
##訟
##訴
##試
##話
##誠
##誣
##諫
##謀
##講
##謝
##證
##變
##讐
##讓
##语
##豆
##象
##貨
##貪
##責
##貳
##貴
##貿
##資
##賞
##贊
##财
##资
##赤
##軌
##軫
##軸
##載
##輔
##輸
##辛
##辨
##迎
##迦
##迪
##迷
##送
##過
##遠
##適
##遵
##遷
##邊
##邪
##郭
##郷
##醫
##釋
##量
##釜
##針
##鈴
##銀
##鋒
##錢
##錯
##鎬
##鎮
##鐘
##鑑
##閣
##閥
##除
##隆
##階
##隨
##險
##離
##難
##雨
##霆
##露
##青
##顔
##飛
##香
##馨
##骨
##魔
##鳥
##麤
##黒
##鼓
##齊
##金
##盧
##老
##綠
##不
##女
##歷
##聯
##禮
##龍
##流
##紐
##律
##慄
##！
##％
##＆
##（
##）
##＊
##＋
##－
##．
##０
##１
##２
##３
##４
##５
##６
##７
##８
##９
##＜
##＞
##？
##Ａ
##Ｂ
##Ｃ
##Ｄ
##Ｅ
##Ｆ
##Ｇ
##Ｈ
##Ｉ
##Ｊ
##Ｋ
##Ｌ
##Ｍ
##Ｎ
##Ｏ
##Ｐ
##Ｑ
##Ｒ
##Ｓ
##Ｔ
##Ｕ
##Ｖ
##Ｗ
##Ｘ
##Ｙ
##Ｚ
##＼
##＾
##｀
##ａ
##ｂ
##ｃ
##ｄ
##ｅ
##ｆ
##ｇ
##ｈ
##ｉ
##ｊ
##ｋ
##ｌ
##ｍ
##ｎ
##ｏ
##ｐ
##ｑ
##ｒ
##ｓ
##ｔ
##ｕ
##ｖ
##ｗ
##ｘ
##ｙ
##ｚ
##～
##￣
